{
  "version": "1.0",
  "truncation": null,
  "padding": null,
  "added_tokens": [
    {
      "id": 0,
      "content": "<|endoftext|>",
      "single_word": false,
      "lstrip": false,
      "rstrip": false,
      "normalized": false,
      "special": true
    }
  ],
  "normalizer": null,
  "pre_tokenizer": {
    "type": "ByteLevel",
    "add_prefix_space": false,
    "trim_offsets": true,
    "use_regex": true
  },
  "post_processor": null,
  "decoder": {
    "type": "ByteLevel",
    "add_prefix_space": true,
    "trim_offsets": true,
    "use_regex": true
  },
  "model": {
    "type": "BPE",
    "dropout": null,
    "unk_token": null,
    "continuing_subword_prefix": null,
    "end_of_word_suffix": null,
    "fuse_unk": false,
    "byte_fallback": false,
    "ignore_merges": false,
    "vocab": {
      "<|endoftext|>": 0,
      "!": 1,
      "\"": 2,
      "#": 3,
      "$": 4,
      "%": 5,
      "&": 6,
      "'": 7,
      "(": 8,
      ")": 9,
      "*": 10,
      "+": 11,
      ",": 12,
      "-": 13,
      ".": 14,
      "/": 15,
      "0": 16,
      "1": 17,
      "2": 18,
      "3": 19,
      "4": 20,
      "5": 21,
      "6": 22,
      "7": 23,
      "8": 24,
      "9": 25,
      ":": 26,
      ";": 27,
      "<": 28,
      "=": 29,
      ">": 30,
      "?": 31,
      "@": 32,
      "A": 33,
      "B": 34,
      "C": 35,
      "D": 36,
      "E": 37,
      "F": 38,
      "G": 39,
      "H": 40,
      "I": 41,
      "J": 42,
      "K": 43,
      "L": 44,
      "M": 45,
      "N": 46,
      "O": 47,
      "P": 48,
      "Q": 49,
      "R": 50,
      "S": 51,
      "T": 52,
      "U": 53,
      "V": 54,
      "W": 55,
      "X": 56,
      "Y": 57,
      "Z": 58,
      "[": 59,
      "\\": 60,
      "]": 61,
      "^": 62,
      "_": 63,
      "`": 64,
      "a": 65,
      "b": 66,
      "c": 67,
      "d": 68,
      "e": 69,
      "f": 70,
      "g": 71,
      "h": 72,
      "i": 73,
      "j": 74,
      "k": 75,
      "l": 76,
      "m": 77,
      "n": 78,
      "o": 79,
      "p": 80,
      "q": 81,
      "r": 82,
      "s": 83,
      "t": 84,
      "u": 85,
      "v": 86,
      "w": 87,
      "x": 88,
      "y": 89,
      "z": 90,
      "{": 91,
      "|": 92,
      "}": 93,
      "~": 94,
      "¡": 95,
      "¢": 96,
      "£": 97,
      "¤": 98,
      "¥": 99,
      "¦": 100,
      "§": 101,
      "¨": 102,
      "©": 103,
      "ª": 104,
      "«": 105,
      "¬": 106,
      "®": 107,
      "¯": 108,
      "°": 109,
      "±": 110,
      "²": 111,
      "³": 112,
      "´": 113,
      "µ": 114,
      "¶": 115,
      "·": 116,
      "¸": 117,
      "¹": 118,
      "º": 119,
      "»": 120,
      "¼": 121,
      "½": 122,
      "¾": 123,
      "¿": 124,
      "À": 125,
      "Á": 126,
      "Â": 127,
      "Ã": 128,
      "Ä": 129,
      "Å": 130,
      "Æ": 131,
      "Ç": 132,
      "È": 133,
      "É": 134,
      "Ê": 135,
      "Ë": 136,
      "Ì": 137,
      "Í": 138,
      "Î": 139,
      "Ï": 140,
      "Ð": 141,
      "Ñ": 142,
      "Ò": 143,
      "Ó": 144,
      "Ô": 145,
      "Õ": 146,
      "Ö": 147,
      "×": 148,
      "Ø": 149,
      "Ù": 150,
      "Ú": 151,
      "Û": 152,
      "Ü": 153,
      "Ý": 154,
      "Þ": 155,
      "ß": 156,
      "à": 157,
      "á": 158,
      "â": 159,
      "ã": 160,
      "ä": 161,
      "å": 162,
      "æ": 163,
      "ç": 164,
      "è": 165,
      "é": 166,
      "ê": 167,
      "ë": 168,
      "ì": 169,
      "í": 170,
      "î": 171,
      "ï": 172,
      "ð": 173,
      "ñ": 174,
      "ò": 175,
      "ó": 176,
      "ô": 177,
      "õ": 178,
      "ö": 179,
      "÷": 180,
      "ø": 181,
      "ù": 182,
      "ú": 183,
      "û": 184,
      "ü": 185,
      "ý": 186,
      "þ": 187,
      "ÿ": 188,
      "Ā": 189,
      "ā": 190,
      "Ă": 191,
      "ă": 192,
      "Ą": 193,
      "ą": 194,
      "Ć": 195,
      "ć": 196,
      "Ĉ": 197,
      "ĉ": 198,
      "Ċ": 199,
      "ċ": 200,
      "Č": 201,
      "č": 202,
      "Ď": 203,
      "ď": 204,
      "Đ": 205,
      "đ": 206,
      "Ē": 207,
      "ē": 208,
      "Ĕ": 209,
      "ĕ": 210,
      "Ė": 211,
      "ė": 212,
      "Ę": 213,
      "ę": 214,
      "Ě": 215,
      "ě": 216,
      "Ĝ": 217,
      "ĝ": 218,
      "Ğ": 219,
      "ğ": 220,
      "Ġ": 221,
      "ġ": 222,
      "Ģ": 223,
      "ģ": 224,
      "Ĥ": 225,
      "ĥ": 226,
      "Ħ": 227,
      "ħ": 228,
      "Ĩ": 229,
      "ĩ": 230,
      "Ī": 231,
      "ī": 232,
      "Ĭ": 233,
      "ĭ": 234,
      "Į": 235,
      "į": 236,
      "İ": 237,
      "ı": 238,
      "Ĳ": 239,
      "ĳ": 240,
      "Ĵ": 241,
      "ĵ": 242,
      "Ķ": 243,
      "ķ": 244,
      "ĸ": 245,
      "Ĺ": 246,
      "ĺ": 247,
      "Ļ": 248,
      "ļ": 249,
      "Ľ": 250,
      "ľ": 251,
      "Ŀ": 252,
      "ŀ": 253,
      "Ł": 254,
      "ł": 255,
      "Ń": 256,
      "Ġt": 257,
      "he": 258,
      "Ġa": 259,
      "Ġs": 260,
      "Ġw": 261,
      "Ġthe": 262,
      "nd": 263,
      "ed": 264,
      "Ġb": 265,
      "Ġto": 266,
      "Ġand": 267,
      "Ġh": 268,
      "Ġf": 269,
      "in": 270,
      "ĠT": 271,
      "Ġwa": 272,
      "re": 273,
      "it": 274,
      "ou": 275,
      "Ġl": 276,
      "Ġd": 277,
      "Ġc": 278,
      "Ġp": 279,
      "ay": 280,
      "Ġm": 281,
      "er": 282,
      "Ġwas": 283,
      "om": 284,
      "ĠThe": 285,
      "Ġhe": 286,
      "is": 287,
      "ar": 288,
      "Ġn": 289,
      "im": 290,
      "on": 291,
      "Ġsa": 292,
      "ll": 293,
      "id": 294,
      "Ġha": 295,
      "Ġg": 296,
      "at": 297,
      "ing": 298,
      "ĠS": 299,
      "ot": 300,
      "en": 301,
      "an": 302,
      "le": 303,
      "or": 304,
      "ir": 305,
      "et": 306,
      "am": 307,
      "ĠH": 308,
      "Ġth": 309,
      "Ġit": 310,
      "ĠThey": 311,
      "ig": 312,
      "il": 313,
      "Ġpl": 314,
      "Ġin": 315,
      "ĠHe": 316,
      "Ġ\"": 317,
      "ow": 318,
      "ver": 319,
      "ri": 320,
      "ut": 321,
      "Ġu": 322,
      "Ġbe": 323,
      "Ġplay": 324,
      "Ġsaid": 325,
      "ith": 326,
      "Ġwith": 327,
      "Ġday": 328,
      "Ġy": 329,
      "Ġo": 330,
      "On": 331,
      "pp": 332,
      "oo": 333,
      "Ġr": 334,
      "ked": 335,
      "Ġher": 336,
      "ce": 337,
      "ĠI": 338,
      "ld": 339,
      "ĠShe": 340,
      "ĠTim": 341,
      "Ġhis": 342,
      "Ġst": 343,
      "ke": 344,
      "Ġe": 345,
      "ck": 346,
      "nt": 347,
      "Ġyou": 348,
      "st": 349,
      "very": 350,
      "Ġbig": 351,
      "ve": 352,
      "end": 353,
      "un": 354,
      "Ġhapp": 355,
      "Ġon": 356,
      "all": 357,
      "riend": 358,
      "Ġfriend": 359,
      "ily": 360,
      "Ġthey": 361,
      "ĠL": 362,
      "Ġhad": 363,
      "Ġwe": 364,
      "Ġup": 365,
      "Ġwant": 366,
      "Ġnot": 367,
      "Ġli": 368,
      "her": 369,
      "Ġof": 370,
      "ad": 371,
      "Ġdo": 372,
      "itt": 373,
      "se": 374,
      "ĠB": 375,
      "ĠM": 376,
      "Ġhappy": 377,
      "ent": 378,
      "Ġvery": 379,
      "es": 380,
      "Ġthat": 381,
      "'s": 382,
      "One": 383,
      "ould": 384,
      "Ġsaw": 385,
      "Ġfor": 386,
      "Ġmom": 387,
      "Ġsh": 388,
      "Ġso": 389,
      "ittle": 390,
      "Ġlittle": 391,
      "Ġshe": 392,
      "ch": 393,
      "ime": 394,
      ".\"": 395,
      "Ġtime": 396,
      "Ġne": 397,
      "Ġnam": 398,
      "Ġk": 399,
      "ound": 400,
      "Ġthere": 401,
      "Ġnamed": 402,
      "ĠLily": 403,
      "Ġsm": 404,
      "Ġwere": 405,
      "Ġbo": 406,
      "Ġwanted": 407,
      "Ġbut": 408,
      "The": 409,
      "Ġfriends": 410,
      "!\"": 411,
      "ved": 412,
      "out": 413,
      "ht": 414,
      "ĠTom": 415,
      "ird": 416,
      "el": 417,
      "Ġbird": 418,
      "al": 419,
      "ake": 420,
      "Ġan": 421,
      "ome": 422,
      "ĠIt": 423,
      "Ġtoo": 424,
      "Ġwent": 425,
      "ide": 426,
      "ug": 427,
      "Ġwh": 428,
      "Once": 429,
      "Ġis": 430,
      "Ġhel": 431,
      "ue": 432,
      "Ġall": 433,
      "Ġhelp": 434,
      "Ġloo": 435,
      "Ġlo": 436,
      "ry": 437,
      "ĠA": 438,
      "Ġupon": 439,
      "ter": 440,
      "ore": 441,
      "ind": 442,
      "Ġfun": 443,
      "ill": 444,
      "get": 445,
      "ame": 446,
      "Ġtoy": 447,
      "Ġas": 448,
      "Ġj": 449,
      "Ġat": 450,
      "ra": 451,
      "Ġre": 452,
      "Ġdid": 453,
      "gether": 454,
      "ur": 455,
      "ack": 456,
      "Ġse": 457,
      "Ġtogether": 458,
      "Ġtre": 459,
      "Ġcat": 460,
      "ly": 461,
      "ood": 462,
      "ic": 463,
      "Ġcould": 464,
      "ted": 465,
      "Ġdog": 466,
      "Ġcan": 467,
      "ark": 468,
      "Ġball": 469,
      "Ġtheir": 470,
      "ard": 471,
      "ec": 472,
      "Ġplayed": 473,
      "way": 474,
      "Ġhim": 475,
      "?\"": 476,
      "irl": 477,
      "my": 478,
      "Ġgo": 479,
      "Ġgirl": 480,
      "Ġro": 481,
      "Ġare": 482,
      "hed": 483,
      "'t": 484,
      "ax": 485,
      "ain": 486,
      "Ġthem": 487,
      "Ġle": 488,
      "Ġout": 489,
      "Ġkn": 490,
      "Ġfr": 491,
      "hen": 492,
      "um": 493,
      "Ġsad": 494,
      "Ġtree": 495,
      "Ġboy": 496,
      "ul": 497,
      "Ġcl": 498,
      "Ġhave": 499,
      "other": 500,
      "oug": 501,
      "Ġman": 502,
      "Ġloved": 503,
      "Ġlooked": 504,
      "Ġsp": 505,
      "Ġstar": 506,
      "Ġfound": 507,
      "hing": 508,
      "ĠMax": 509,
      "one": 510,
      "ĠSue": 511,
      "Ġback": 512,
      "Ġsc": 513,
      "own": 514,
      "Ġlike": 515,
      "are": 516,
      "Ġme": 517,
      "Ġcar": 518,
      "ful": 519,
      "Ġbec": 520,
      "Ġpark": 521,
      "side": 522,
      "ong": 523,
      "elt": 524,
      "ight": 525,
      "ĠOne": 526,
      "Ġfa": 527,
      "Ġliked": 528,
      "Ġwould": 529,
      "Ġfelt": 530,
      "Ġmake": 531,
      "op": 532,
      "omet": 533,
      "Ġsee": 534,
      "Ġla": 535,
      "round": 536,
      "You": 537,
      "ĠW": 538,
      "ell": 539,
      "ĠBut": 540,
      "Ġno": 541,
      "ouse": 542,
      "Ġstarted": 543,
      "ared": 544,
      "Ġasked": 545,
      "Ġnew": 546,
      "Ġal": 547,
      "ice": 548,
      "ĠBen": 549,
      "Ġcame": 550,
      "ought": 551,
      "ag": 552,
      "Ġsomet": 553,
      "iled": 554,
      "Ġother": 555,
      "Ġag": 556,
      "ĠSam": 557,
      "Ġsay": 558,
      "Ġgood": 559,
      "Ġbr": 560,
      "ss": 561,
      "Ġsmall": 562,
      "ade": 563,
      "ings": 564,
      "Ġsmiled": 565,
      "ried": 566,
      "ob": 567,
      "ia": 568,
      "pot": 569,
      "Ġaway": 570,
      "Ġwor": 571,
      "Ġsomething": 572,
      "Ġex": 573,
      "Ġfind": 574,
      "Ġthought": 575,
      "ened": 576,
      "Ġwhat": 577,
      "Ġmade": 578,
      "Ġhome": 579,
      "ook": 580,
      "ty": 581,
      "Ġmu": 582,
      "Ġput": 583,
      "Ġfrom": 584,
      "Ġplaying": 585,
      "Ġevery": 586,
      "Ġwal": 587,
      "Ġco": 588,
      "Ġran": 589,
      "arn": 590,
      "ach": 591,
      "ĠJ": 592,
      "ie": 593,
      "dd": 594,
      "ĠF": 595,
      "ile": 596,
      "ĠSpot": 597,
      "Ġdown": 598,
      "Ġsome": 599,
      "ave": 600,
      "Ġfl": 601,
      "Ġagain": 602,
      "uc": 603,
      "ny": 604,
      "king": 605,
      "Ġhouse": 606,
      "Ġscared": 607,
      "Ġlaug": 608,
      "Ġbl": 609,
      "ure": 610,
      "ab": 611,
      "uck": 612,
      "ep": 613,
      "ick": 614,
      "Ġlearn": 615,
      "ĠYou": 616,
      "Ġmy": 617,
      "Ġpr": 618,
      "Ġtook": 619,
      "Ġwill": 620,
      "if": 621,
      "ret": 622,
      "Ġthings": 623,
      "Ġbox": 624,
      "Ġaround": 625,
      "Ġtoys": 626,
      "oud": 627,
      ",\"": 628,
      "Ġsun": 629,
      "Ġsw": 630,
      "Ġyour": 631,
      "as": 632,
      "Ġfe": 633,
      "Ġthen": 634,
      "Ġlived": 635,
      "ĠMia": 636,
      "Ġwhen": 637,
      "ish": 638,
      "us": 639,
      "pped": 640,
      "Ġch": 641,
      "ank": 642,
      "Ġsays": 643,
      "Ġab": 644,
      "oth": 645,
      "Tim": 646,
      "Ġlot": 647,
      "Th": 648,
      "Ġget": 649,
      "Ġgot": 650,
      "Ġwho": 651,
      "ap": 652,
      "Ġtried": 653,
      "ust": 654,
      "ist": 655,
      "Ġknow": 656,
      "ew": 657,
      "ump": 658,
      "ited": 659,
      "ucy": 660,
      "Ġmany": 661,
      "Lily": 662,
      "Ġint": 663,
      "nder": 664,
      "ive": 665,
      "ise": 666,
      "Ġdec": 667,
      "Ġred": 668,
      "Ġabout": 669,
      "Ġpret": 670,
      "ĠD": 671,
      "ally": 672,
      "Ġmore": 673,
      "Ġany": 674,
      "qu": 675,
      "Ġknew": 676,
      "ace": 677,
      "Ġv": 678,
      "âĢ": 679,
      "Ġcare": 680,
      "Ġpo": 681,
      "Ġhug": 682,
      "Ġlearned": 683,
      "Ġpic": 684,
      "Ġbest": 685,
      "Ġop": 686,
      "ous": 687,
      "Ġbecame": 688,
      "use": 689,
      "urp": 690,
      "fter": 691,
      "Ġwater": 692,
      "ways": 693,
      "Ġho": 694,
      "Ġun": 695,
      "Ġexc": 696,
      "Ġgre": 697,
      "Ġalways": 698,
      "ause": 699,
      "Ġlook": 700,
      "ided": 701,
      "Ġlaughed": 702,
      "Ġoutside": 703,
      "ers": 704,
      "Ġeat": 705,
      "Ġdecided": 706,
      "ĠSo": 707,
      "Ġroom": 708,
      "ĠMom": 709,
      "udd": 710,
      "ĠLucy": 711,
      "Ġinto": 712,
      "Ġboth": 713,
      "Ġshow": 714,
      "Ġbecause": 715,
      "ĠBob": 716,
      "Ġpe": 717,
      "They": 718,
      "nn": 719,
      "ant": 720,
      "Ġdad": 721,
      "Ġthis": 722,
      "ĠAnd": 723,
      "ĠE": 724,
      "Ġjump": 725,
      "Ġnice": 726,
      "Ġrun": 727,
      "Ġke": 728,
      "ite": 729,
      "Ġfast": 730,
      "fe": 731,
      "Ġone": 732,
      "Ġexcited": 733,
      "Ġlong": 734,
      "Yes": 735,
      "Ġfeel": 736,
      "urpr": 737,
      "Tom": 738,
      "Ġam": 739,
      "ull": 740,
      "Ġsl": 741,
      "Ġsurpr": 742,
      "our": 743,
      "Ġtr": 744,
      "Ġsor": 745,
      "Ġtold": 746,
      "Ġtake": 747,
      "ink": 748,
      "nna": 749,
      "iny": 750,
      "Ġinside": 751,
      "Wh": 752,
      "Ġsk": 753,
      "og": 754,
      "Ġpretty": 755,
      "Ġmo": 756,
      "Ġgra": 757,
      "Ġrock": 758,
      "Ġeach": 759,
      "imal": 760,
      "Ġgave": 761,
      "Ġanimal": 762,
      "Ġmuch": 763,
      "Ġneed": 764,
      "lew": 765,
      "Ġthan": 766,
      "Ġtow": 767,
      "But": 768,
      "ged": 769,
      "Ġsorry": 770,
      "ro": 771,
      "Ġhow": 772,
      "Ġstr": 773,
      "etter": 774,
      "ĠC": 775,
      "ven": 776,
      "Ġor": 777,
      "Ġunder": 778,
      "ara": 779,
      "Ġold": 780,
      "ge": 781,
      "ess": 782,
      "Ġclo": 783,
      "ised": 784,
      "Ġbear": 785,
      "urt": 786,
      "ast": 787,
      "Ġcle": 788,
      "ff": 789,
      "Ġflow": 790,
      "urn": 791,
      "Ġhand": 792,
      "Ġkind": 793,
      "ine": 794,
      "Ġdidn": 795,
      "and": 796,
      "Ġanimals": 797,
      "ase": 798,
      "Ġhappened": 799,
      "Ġwalked": 800,
      "Ġwat": 801,
      "ĠHis": 802,
      "Ġjust": 803,
      "Ġhig": 804,
      "Ġfish": 805,
      "ft": 806,
      "Ġfi": 807,
      "ĠWe": 808,
      "Ġtry": 809,
      "pl": 810,
      "here": 811,
      "ched": 812,
      "Ġide": 813,
      "rom": 814,
      "Ġfood": 815,
      "Ġus": 816,
      "Ġbetter": 817,
      "Ġlist": 818,
      "Ġits": 819,
      "able": 820,
      "ving": 821,
      "Ġidea": 822,
      "gry": 823,
      "Ġlet": 824,
      "Ġnear": 825,
      "Ġsky": 826,
      "Ġtw": 827,
      "Ġte": 828,
      "Ġen": 829,
      "Ġheard": 830,
      "pec": 831,
      "ĠTh": 832,
      "Ġbug": 833,
      "ate": 834,
      "Ġshare": 835,
      "Thank": 836,
      "Ġcareful": 837,
      "Mom": 838,
      "Ġif": 839,
      "ial": 840,
      "Ġstor": 841,
      "ex": 842,
      "Ġby": 843,
      "Ġspec": 844,
      "Ġspecial": 845,
      "Ġlove": 846,
      "Ġlots": 847,
      "Ġflew": 848,
      "Ġdon": 849,
      "ĠAmy": 850,
      "Ġfo": 851,
      "Ġbook": 852,
      "Ġfly": 853,
      "Ġdan": 854,
      "Ġsn": 855,
      "Ġnever": 856,
      "more": 857,
      "Ġanymore": 858,
      "Ġcom": 859,
      "lf": 860,
      "Ġend": 861,
      "ion": 862,
      "Ġshiny": 863,
      "ak": 864,
      "ream": 865,
      "Ġfore": 866,
      "Ġtal": 867,
      "Ġgr": 868,
      "ber": 869,
      "Ġwind": 870,
      "imb": 871,
      "Ġeven": 872,
      "ople": 873,
      "ĠAnna": 874,
      "Ġclimb": 875,
      "Ġcake": 876,
      "udden": 877,
      "rm": 878,
      "Ġclean": 879,
      "ĠEvery": 880,
      "Ġturn": 881,
      "ort": 882,
      "Ġhard": 883,
      "Ġmag": 884,
      "Ġbad": 885,
      "Ġdoor": 886,
      "Ġbu": 887,
      "Ġhigh": 888,
      "pected": 889,
      "Ġcu": 890,
      "Ġway": 891,
      "uddenly": 892,
      "Let": 893,
      "Ġhurt": 894,
      "Ġcome": 895,
      "ĠThen": 896,
      "'m": 897,
      "Ġafter": 898,
      "Ġpeople": 899,
      "Ġover": 900,
      "Ġsurprised": 901,
      "Ġche": 902,
      "Ġgive": 903,
      "Ġunex": 904,
      "Ġunexpected": 905,
      "Ġopened": 906,
      "Ġcol": 907,
      "Ġfam": 908,
      "Ġproud": 909,
      "bb": 910,
      "As": 911,
      "Ġfar": 912,
      "Ġim": 913,
      "No": 914,
      "ĠFrom": 915,
      "Ġpicked": 916,
      "Ġground": 917,
      "Ġloud": 918,
      "Ġthanked": 919,
      "Ġhugged": 920,
      "Ġgl": 921,
      "Ġstill": 922,
      "ool": 923,
      "ĠK": 924,
      "Ġever": 925,
      "uff": 926,
      "ady": 927,
      "Ġsafe": 928,
      "Ġcall": 929,
      "ummy": 930,
      "ail": 931,
      "ĠWhen": 932,
      "Ġmagic": 933,
      "arden": 934,
      "Ġgarden": 935,
      "ĠSara": 936,
      "Ġblue": 937,
      "ild": 938,
      "ĠHer": 939,
      "Ġqu": 940,
      "Ġcolor": 941,
      "les": 942,
      "kay": 943,
      "ct": 944,
      "Ġpar": 945,
      "Ġwalk": 946,
      "ough": 947,
      "Ġoff": 948,
      "ĠIn": 949,
      "Ġshould": 950,
      "Ġsmile": 951,
      "Ġkid": 952,
      "ip": 953,
      "iz": 954,
      "Ġfamily": 955,
      "em": 956,
      "Ġstay": 957,
      "Ġnow": 958,
      "Ġforest": 959,
      "aut": 960,
      "Ġjumped": 961,
      "oon": 962,
      "Ġsqu": 963,
      "itty": 964,
      "age": 965,
      "ture": 966,
      "Ġstick": 967,
      "hes": 968,
      "Ġbeaut": 969,
      "Ġgreat": 970,
      "dy": 971,
      "Ġtra": 972,
      "Ġplace": 973,
      "Ġfrog": 974,
      "rel": 975,
      "iful": 976,
      "Ġunt": 977,
      "Ġbeautiful": 978,
      "Ġbra": 979,
      "lease": 980,
      "oy": 981,
      "aking": 982,
      "Ġclos": 983,
      "xt": 984,
      "Ġnext": 985,
      "Ġeveryone": 986,
      "Ġstrong": 987,
      "Ġrain": 988,
      "Ġhappily": 989,
      "unny": 990,
      "be": 991,
      "Ġtown": 992,
      "ĠP": 993,
      "Ġsto": 994,
      "Ġuntil": 995,
      "ning": 996,
      "Ġkids": 997,
      "Ġbro": 998,
      "Ġstory": 999,
      "Ġhelped": 1000,
      "Ġmet": 1001,
      "ies": 1002,
      "uffy": 1003,
      "Ġapp": 1004,
      "Ġimp": 1005,
      "Ġshowed": 1006,
      "Ġwhile": 1007,
      "It": 1008,
      "Ġlisten": 1009,
      "Ġpicture": 1010,
      "pt": 1011,
      "ane": 1012,
      "Ġtruck": 1013,
      "Ġmouse": 1014,
      "Ġcalled": 1015,
      "Now": 1016,
      "Ġmor": 1017,
      "ress": 1018,
      "ock": 1019,
      "ree": 1020,
      "Ġbeing": 1021,
      "Ġgame": 1022,
      "Ġcry": 1023,
      "by": 1024,
      "Ġrem": 1025,
      "Ġdoll": 1026,
      "Ġhat": 1027,
      "Ġopen": 1028,
      "ĠSally": 1029,
      "Ġwatch": 1030,
      "th": 1031,
      "Ġad": 1032,
      "ĠLet": 1033,
      "Can": 1034,
      "When": 1035,
      "Ġslide": 1036,
      "He": 1037,
      "Ġsoft": 1038,
      "Ġangry": 1039,
      "Ġyummy": 1040,
      "Ġstopped": 1041,
      "so": 1042,
      "Ġdra": 1043,
      "Ġflowers": 1044,
      "ĠWh": 1045,
      "Ġde": 1046,
      "dded": 1047,
      "Ġcouldn": 1048,
      "Ġalso": 1049,
      "Ġwo": 1050,
      "ĠKitty": 1051,
      "Ġlost": 1052,
      "luffy": 1053,
      "Ġboat": 1054,
      "fore": 1055,
      "Ġgreen": 1056,
      "Ġkeep": 1057,
      "iss": 1058,
      "Ġate": 1059,
      "Ġbed": 1060,
      "vent": 1061,
      "ished": 1062,
      "az": 1063,
      "Ġfell": 1064,
      "ary": 1065,
      "Ġbrave": 1066,
      "irst": 1067,
      "irrel": 1068,
      "Ġnoise": 1069,
      "gan": 1070,
      "ger": 1071,
      "Ġleave": 1072,
      "Ġface": 1073,
      "Ġhole": 1074,
      "Ġsquirrel": 1075,
      "Ġpus": 1076,
      "What": 1077,
      "ĠR": 1078,
      "ired": 1079,
      "Ġwhere": 1080,
      "bit": 1081,
      "leep": 1082,
      "Ġwarm": 1083,
      "Ġsoon": 1084,
      "abbit": 1085,
      "Ġbefore": 1086,
      "Ġtwo": 1087,
      "Hi": 1088,
      "Then": 1089,
      "self": 1090,
      "owl": 1091,
      "ble": 1092,
      "âĢľ": 1093,
      "Ġbre": 1094,
      "Ġnodded": 1095,
      "Ġhands": 1096,
      "ĠFluffy": 1097,
      "Ġmommy": 1098,
      "illy": 1099,
      "Ġfin": 1100,
      "Ġhear": 1101,
      "Ġrabbit": 1102,
      "Look": 1103,
      "That": 1104,
      "âĢĿ": 1105,
      "Ġexpl": 1106,
      "Ġsat": 1107,
      "aybe": 1108,
      "Ben": 1109,
      "Ġey": 1110,
      "Ġcatch": 1111,
      "Ġkept": 1112,
      "Ġhas": 1113,
      "day": 1114,
      "Ġpa": 1115,
      "ear": 1116,
      "Ġtired": 1117,
      "Ġthink": 1118,
      "Ġhaving": 1119,
      "Ġstore": 1120,
      "Ġmean": 1121,
      "Ġsunny": 1122,
      "Ġcook": 1123,
      "Ġpull": 1124,
      "Ġpain": 1125,
      "ma": 1126,
      "Ġuse": 1127,
      "ĠNow": 1128,
      "Ġfunny": 1129,
      "Ġbunny": 1130,
      "ange": 1131,
      "rew": 1132,
      "Ġbeh": 1133,
      "Ġyell": 1134,
      "Ġbirds": 1135,
      "Ġjo": 1136,
      "Ġflo": 1137,
      "uch": 1138,
      "Ġused": 1139,
      "Ġthr": 1140,
      "Ġwork": 1141,
      "Ġsing": 1142,
      "Ġpond": 1143,
      "uit": 1144,
      "thing": 1145,
      "Ġour": 1146,
      "joy": 1147,
      "Ġgoing": 1148,
      "Ġeyes": 1149,
      "Ġwait": 1150,
      "Ġwr": 1151,
      "Ġpie": 1152,
      "Ġtalk": 1153,
      "Ġlooking": 1154,
      "Ġdr": 1155,
      "Ġhead": 1156,
      "Ġduck": 1157,
      "ĠCan": 1158,
      "ĠJo": 1159,
      "Ġfirst": 1160,
      "Ġothers": 1161,
      "ember": 1162,
      "Ġsound": 1163,
      "Ġsleep": 1164,
      "Ġask": 1165,
      "aug": 1166,
      "Ġcra": 1167,
      "aught": 1168,
      "Ġrace": 1169,
      "ting": 1170,
      "ĠG": 1171,
      "zy": 1172,
      "Ġbus": 1173,
      "Ġblock": 1174,
      "Ġflower": 1175,
      "air": 1176,
      "We": 1177,
      "Ġfav": 1178,
      "Ġfix": 1179,
      "Ġenjoy": 1180,
      "Ġsand": 1181,
      "Ġright": 1182,
      "Ġkit": 1183,
      "ng": 1184,
      "Ġcuri": 1185,
      "llow": 1186,
      "Ġreal": 1187,
      "Ġparty": 1188,
      "Hell": 1189,
      "Ġhill": 1190,
      "Hello": 1191,
      "chen": 1192,
      "Ġkitchen": 1193,
      "Ġcon": 1194,
      "ath": 1195,
      "Ġhop": 1196,
      "Ġbright": 1197,
      "ĠJack": 1198,
      "Ġremember": 1199,
      "Ġcurious": 1200,
      "ĠDo": 1201,
      "Ġvo": 1202,
      "orn": 1203,
      "Ġhere": 1204,
      "Ġdif": 1205,
      "reed": 1206,
      "Ġokay": 1207,
      "Ġtri": 1208,
      "ĠâĢľ": 1209,
      "Ġcars": 1210,
      "Ġshared": 1211,
      "led": 1212,
      "Ġmoral": 1213,
      "Ġimport": 1214,
      "imes": 1215,
      "Ġworked": 1216,
      "Ġbegan": 1217,
      "Ġcla": 1218,
      "Ġri": 1219,
      "Ġmaking": 1220,
      "Ġadvent": 1221,
      "ac": 1222,
      "Ġthing": 1223,
      "Ġfollow": 1224,
      "ious": 1225,
      "Ġsurprise": 1226,
      "Ġyard": 1227,
      "Ġswe": 1228,
      "Ġfavor": 1229,
      "Ġmon": 1230,
      "ĠFin": 1231,
      "Ġfire": 1232,
      "Ġfavorite": 1233,
      "Ġmess": 1234,
      "Ġrest": 1235,
      "Ġimportant": 1236,
      "Ġagreed": 1237,
      "Ġdis": 1238,
      "hn": 1239,
      "Ġbag": 1240,
      "lly": 1241,
      "Ġgrass": 1242,
      "Ġcold": 1243,
      "Ġhid": 1244,
      "Ġdir": 1245,
      "Don": 1246,
      "Ġown": 1247,
      "Ġtop": 1248,
      "Ġpick": 1249,
      "At": 1250,
      "que": 1251,
      "Ġdress": 1252,
      "Ġbehind": 1253,
      "Ġtable": 1254,
      "aper": 1255,
      "ount": 1256,
      "Ġwalking": 1257,
      "Wow": 1258,
      "Ġforg": 1259,
      "Ġfloor": 1260,
      "Ġhun": 1261,
      "ect": 1262,
      "ĠThis": 1263,
      "co": 1264,
      "Ġnight": 1265,
      "Ġwatched": 1266,
      "Ġfarm": 1267,
      "Ġsong": 1268,
      "Ġtall": 1269,
      "Ġcut": 1270,
      "Ġworry": 1271,
      "âĢĻ": 1272,
      "Ġru": 1273,
      "Ġvoice": 1274,
      "ied": 1275,
      "aring": 1276,
      "Ġsho": 1277,
      "Ġread": 1278,
      "Ġhot": 1279,
      "Ġtrees": 1280,
      "Ġmove": 1281,
      "Ġtell": 1282,
      "Ġstop": 1283,
      "ike": 1284,
      "After": 1285,
      "ster": 1286,
      "Max": 1287,
      "Why": 1288,
      "Ġclimbed": 1289,
      "Ġleaves": 1290,
      "Ġcloser": 1291,
      "isy": 1292,
      "Ġturned": 1293,
      "Ġtail": 1294,
      "Ġplease": 1295,
      "Ġdoes": 1296,
      "Ġdark": 1297,
      "Ġneeded": 1298,
      "Ġblocks": 1299,
      "Ġz": 1300,
      "Ġbel": 1301,
      "bo": 1302,
      "Ġlion": 1303,
      "ĠDad": 1304,
      "Ġdraw": 1305,
      "Anna": 1306,
      "Ġice": 1307,
      "Ġfriendly": 1308,
      "Ġswing": 1309,
      "Ġhungry": 1310,
      "Ġadventure": 1311,
      "Ġcried": 1312,
      "Ġant": 1313,
      "ered": 1314,
      "Ġplan": 1315,
      "aby": 1316,
      "Ġshout": 1317,
      "ĠMr": 1318,
      "fere": 1319,
      "Ġyellow": 1320,
      "Ġsweet": 1321,
      "Ġdiffere": 1322,
      "Sue": 1323,
      "ached": 1324,
      "ĠAs": 1325,
      "Ġpiece": 1326,
      "bye": 1327,
      "Ġpaper": 1328,
      "Ġlaugh": 1329,
      "Ġfeeling": 1330,
      "ĠThat": 1331,
      "ĠTimmy": 1332,
      "ĠSuddenly": 1333,
      "Ġtrain": 1334,
      "Ġcolors": 1335,
      "Ġwet": 1336,
      "Ġtast": 1337,
      "ign": 1338,
      "Ġdance": 1339,
      "ila": 1340,
      "Ġwood": 1341,
      "Ġdel": 1342,
      "Sam": 1343,
      "Ġready": 1344,
      "sh": 1345,
      "Ġdifferent": 1346,
      "Ġdanc": 1347,
      "Ġfull": 1348,
      "Ġtouch": 1349,
      "Ġfruit": 1350,
      "Ġswim": 1351,
      "She": 1352,
      "where": 1353,
      "Ġbaby": 1354,
      "ken": 1355,
      "Ġroll": 1356,
      "ient": 1357,
      "Ġclose": 1358,
      "Ġlistened": 1359,
      "Ġhold": 1360,
      "Ġcool": 1361,
      "Ġpretend": 1362,
      "Ġanother": 1363,
      "Ġglad": 1364,
      "Ġsees": 1365,
      "Ġprom": 1366,
      "Ġgoodbye": 1367,
      "Ġbroken": 1368,
      "Ġreached": 1369,
      "cked": 1370,
      "oom": 1371,
      "Suddenly": 1372,
      "Ġprin": 1373,
      "Ġwall": 1374,
      "Ġper": 1375,
      "Ġstuck": 1376,
      "Ġfair": 1377,
      "Ġcr": 1378,
      "ater": 1379,
      "Ġwonder": 1380,
      "Ġonly": 1381,
      "Ġamaz": 1382,
      "So": 1383,
      "Ġslow": 1384,
      "Ġgone": 1385,
      "ĠO": 1386,
      "ppy": 1387,
      "ĠAll": 1388,
      "bbed": 1389,
      "Ġless": 1390,
      "Ġlady": 1391,
      "ĠEveryone": 1392,
      "Mia": 1393,
      "Ġrunning": 1394,
      "Ġpu": 1395,
      "ĠBobo": 1396,
      "ather": 1397,
      "Ġhair": 1398,
      "Ġhelping": 1399,
      "Ġac": 1400,
      "uddy": 1401,
      "Ġste": 1402,
      "Ġdri": 1403,
      "Ġrepl": 1404,
      "Ġar": 1405,
      "ĠJane": 1406,
      "Ġbutter": 1407,
      "Ġballoon": 1408,
      "Ġpushed": 1409,
      "av": 1410,
      "Sara": 1411,
      "Ġcream": 1412,
      "Ġmight": 1413,
      "Ġquick": 1414,
      "Ġsmell": 1415,
      "ee": 1416,
      "oney": 1417,
      "Ġmoment": 1418,
      "Ġcloud": 1419,
      "ndma": 1420,
      "Ġbeen": 1421,
      "Ġwag": 1422,
      "Ġbit": 1423,
      "Ġdoing": 1424,
      "Ġlooks": 1425,
      "Ġsit": 1426,
      "icy": 1427,
      "Ġfall": 1428,
      "ins": 1429,
      "Ġlight": 1430,
      "af": 1431,
      "Ġdro": 1432,
      "Ġname": 1433,
      "Ġreach": 1434,
      "Ġbar": 1435,
      "Ġwindow": 1436,
      "Ġwished": 1437,
      "iced": 1438,
      "Ġdone": 1439,
      "ames": 1440,
      "Ġcoming": 1441,
      "Ġmust": 1442,
      "Ġdin": 1443,
      "Ġheld": 1444,
      "Ġexplore": 1445,
      "aisy": 1446,
      "Ġmat": 1447,
      "Ġcup": 1448,
      "Ġbuy": 1449,
      "Ġwise": 1450,
      "Ġfight": 1451,
      "Ġpulled": 1452,
      "Ġchild": 1453,
      "Ġthrough": 1454,
      "Ġdream": 1455,
      "Ġwin": 1456,
      "Ġbooks": 1457,
      "der": 1458,
      "Ġcast": 1459,
      "Ġhide": 1460,
      "ash": 1461,
      "andy": 1462,
      "Okay": 1463,
      "Ġtrying": 1464,
      "Ġgrow": 1465,
      "ĠBuddy": 1466,
      "cle": 1467,
      "Ġperf": 1468,
      "Ġtiny": 1469,
      "Ġthank": 1470,
      "Ġwhy": 1471,
      "ation": 1472,
      "Ġunderst": 1473,
      "room": 1474,
      "Ġjoin": 1475,
      "ix": 1476,
      "Ġspl": 1477,
      "Ġbuild": 1478,
      "In": 1479,
      "Ġclapped": 1480,
      "Ġswam": 1481,
      "Ġpen": 1482,
      "Ġshouted": 1483,
      "Ġlesson": 1484,
      "asure": 1485,
      "Ġapple": 1486,
      "Ġve": 1487,
      "key": 1488,
      "Ġleft": 1489,
      "Ġreplied": 1490,
      "Ġsometimes": 1491,
      "red": 1492,
      "Ġpink": 1493,
      "ized": 1494,
      "ott": 1495,
      "Ġdirty": 1496,
      "Ġbrother": 1497,
      "Ġwaved": 1498,
      "ower": 1499,
      "ely": 1500,
      "Ġscary": 1501,
      "Ġquickly": 1502,
      "Ġsure": 1503,
      "ucky": 1504,
      "Ġenjoyed": 1505,
      "oup": 1506,
      "ctor": 1507,
      "Ġseen": 1508,
      "Ġarm": 1509,
      "Ġcre": 1510,
      "Ġgames": 1511,
      "Ġnest": 1512,
      "'re": 1513,
      "Ġbigger": 1514,
      "ĠMommy": 1515,
      "Ġremembered": 1516,
      "man": 1517,
      "Ġalone": 1518,
      "Ġchair": 1519,
      "ield": 1520,
      "Ġset": 1521,
      "Ġblew": 1522,
      "ĠAfter": 1523,
      "ds": 1524,
      "Ġsnow": 1525,
      "Ġcont": 1526,
      "avy": 1527,
      "Ġowl": 1528,
      "Ġpot": 1529,
      "Ġthree": 1530,
      "Ġthrew": 1531,
      "Ġmar": 1532,
      "This": 1533,
      "Ġwoods": 1534,
      "ries": 1535,
      "Ġgif": 1536,
      "outh": 1537,
      "Ġstayed": 1538,
      "Ġwaited": 1539,
      "Ġlikes": 1540,
      "Ġanything": 1541,
      "Ġbutterf": 1542,
      "ĠThere": 1543,
      "pe": 1544,
      "Ġgrabbed": 1545,
      "Ġjob": 1546,
      "Ġland": 1547,
      "Jo": 1548,
      "Ġspot": 1549,
      "Ġmus": 1550,
      "Oh": 1551,
      "de": 1552,
      "ape": 1553,
      "Ġcount": 1554,
      "Ġbran": 1555,
      "Ġmouth": 1556,
      "Ġblack": 1557,
      "Ġcolorful": 1558,
      "Ġair": 1559,
      "Ġmiss": 1560,
      "Ġbreak": 1561,
      "Ġcastle": 1562,
      "Ġtight": 1563,
      "Ġtower": 1564,
      "Ġmakes": 1565,
      "Ġbroke": 1566,
      "Ġpictures": 1567,
      "Ġbike": 1568,
      "art": 1569,
      "Ġtreat": 1570,
      "Ġgent": 1571,
      "Ġfollowed": 1572,
      "Ġfill": 1573,
      "Ġturns": 1574,
      "ask": 1575,
      "Ġpaint": 1576,
      "row": 1577,
      "Ġnoticed": 1578,
      "Ġmix": 1579,
      "Ġpat": 1580,
      "Ġhopped": 1581,
      "olly": 1582,
      "Ġheavy": 1583,
      "Ġyear": 1584,
      "lc": 1585,
      "Ġwon": 1586,
      "zz": 1587,
      "Ġplant": 1588,
      "Ġworld": 1589,
      "ton": 1590,
      "Ġsea": 1591,
      "ph": 1592,
      "ĠDaisy": 1593,
      "Do": 1594,
      "Ġmusic": 1595,
      "Ġpol": 1596,
      "Ġju": 1597,
      "ĠWhat": 1598,
      "Ġclot": 1599,
      "Ġkey": 1600,
      "Ġforgot": 1601,
      "Ġround": 1602,
      "Ġclothes": 1603,
      "Ġeverywhere": 1604,
      "Her": 1605,
      "Ġbrought": 1606,
      "Ġbott": 1607,
      "Spot": 1608,
      "oun": 1609,
      "Ġwrong": 1610,
      "Ġstu": 1611,
      "Ġbee": 1612,
      "Ġhimself": 1613,
      "Ġmum": 1614,
      "orm": 1615,
      "Ġbutterfly": 1616,
      "Ġrel": 1617,
      "Ġdelic": 1618,
      "ued": 1619,
      "Ġwants": 1620,
      "Ġbor": 1621,
      "cy": 1622,
      "ully": 1623,
      "ner": 1624,
      "cess": 1625,
      "Ġcomp": 1626,
      "Ġdanced": 1627,
      "\".": 1628,
      "less": 1629,
      "rot": 1630,
      "Ġvis": 1631,
      "Bob": 1632,
      "Ġwear": 1633,
      "Ġdeep": 1634,
      "Ġride": 1635,
      "ross": 1636,
      "Lucy": 1637,
      "Ġrocks": 1638,
      "os": 1639,
      "Ġhit": 1640,
      "Ġfaster": 1641,
      "ĠJohn": 1642,
      "Ġfox": 1643,
      "Ġblank": 1644,
      "fully": 1645,
      "ves": 1646,
      "ren": 1647,
      "Ġnap": 1648,
      "Ġsharing": 1649,
      "iet": 1650,
      "ister": 1651,
      "Ġwhite": 1652,
      "Ġsilly": 1653,
      "Ġblanket": 1654,
      "Ġdry": 1655,
      "Ġtalked": 1656,
      "Ġquiet": 1657,
      "Ġside": 1658,
      "Ġbowl": 1659,
      "ance": 1660,
      "ĠInside": 1661,
      "ards": 1662,
      "thy": 1663,
      "Ġmonster": 1664,
      "Ġleg": 1665,
      "eddy": 1666,
      "Ġsomeone": 1667,
      "Ġking": 1668,
      "arent": 1669,
      "Ġsign": 1670,
      "Ġworried": 1671,
      "ĠJoe": 1672,
      "Ġriver": 1673,
      "ĠLila": 1674,
      "Ġcontin": 1675,
      "ĠMaybe": 1676,
      "Ġgift": 1677,
      "Ġunderstand": 1678,
      "Ġem": 1679,
      "ĠSoon": 1680,
      "Ġgi": 1681,
      "Ġque": 1682,
      "Ġsec": 1683,
      "Maybe": 1684,
      "His": 1685,
      "Ġel": 1686,
      "Ġvisit": 1687,
      "Ġbutton": 1688,
      "Ġsister": 1689,
      "Ġreally": 1690,
      "ĠSarah": 1691,
      "Ġres": 1692,
      "Ġgu": 1693,
      "Ġleaf": 1694,
      "Ġparent": 1695,
      "itten": 1696,
      "Ġjar": 1697,
      "Ġfinished": 1698,
      "Ġdoctor": 1699,
      "Ġflying": 1700,
      "Ġcookies": 1701,
      "Ġpudd": 1702,
      "ence": 1703,
      "ĠJen": 1704,
      "From": 1705,
      "Ġelse": 1706,
      "Ġtoday": 1707,
      "Ġsecret": 1708,
      "ĠTo": 1709,
      "ang": 1710,
      "amp": 1711,
      "Ġwelc": 1712,
      "Ġfairy": 1713,
      "Ġdinner": 1714,
      "ĠAt": 1715,
      "Ġstart": 1716,
      "Ġfur": 1717,
      "Ġpromised": 1718,
      "ated": 1719,
      "Ġsmart": 1720,
      "While": 1721,
      "Ġcrying": 1722,
      "Ġhappen": 1723,
      "Ġbeach": 1724,
      "Ġsmiles": 1725,
      "ire": 1726,
      "gg": 1727,
      "Ġwish": 1728,
      "Ġpoin": 1729,
      "Ġcontinued": 1730,
      "Ġcarefully": 1731,
      "Ġpig": 1732,
      "Ġchildren": 1733,
      "Ġperfect": 1734,
      "Ġwell": 1735,
      "Ġbrown": 1736,
      "ined": 1737,
      "Ġcow": 1738,
      "Fin": 1739,
      "Ġcandy": 1740,
      "Ġmud": 1741,
      "Ġeverything": 1742,
      "Ġele": 1743,
      "chool": 1744,
      "Ġeating": 1745,
      "Ġfield": 1746,
      "John": 1747,
      "Ġasks": 1748,
      "ze": 1749,
      "used": 1750,
      "Ġruns": 1751,
      "Ġpieces": 1752,
      "Ġatt": 1753,
      "Ġamazing": 1754,
      "Ġtreasure": 1755,
      "Ġboun": 1756,
      "Ġsang": 1757,
      "ĠEm": 1758,
      "Ġbath": 1759,
      "ead": 1760,
      "Ġthrow": 1761,
      "Ġrealized": 1762,
      "stead": 1763,
      "Ġfilled": 1764,
      "eb": 1765,
      "Ġschool": 1766,
      "Ġlaughing": 1767,
      "itting": 1768,
      "Ġpast": 1769,
      "Ġclosed": 1770,
      "Ġdrink": 1771,
      "Ġstrange": 1772,
      "Ġmonkey": 1773,
      "Just": 1774,
      "Ġwings": 1775,
      "Ġ-": 1776,
      "board": 1777,
      "ses": 1778,
      "ey": 1779,
      "ĠCh": 1780,
      "Ġegg": 1781,
      "vel": 1782,
      "ord": 1783,
      "Ġapples": 1784,
      "ipp": 1785,
      "ĠZ": 1786,
      "Ġpurp": 1787,
      "cket": 1788,
      "Ġorange": 1789,
      "Ġrolled": 1790,
      "imi": 1791,
      "Ġhor": 1792,
      "Ġfree": 1793,
      "Ġwagged": 1794,
      "Ġbranch": 1795,
      "gy": 1796,
      "Ġwords": 1797,
      "Ġsoup": 1798,
      "Ġyes": 1799,
      "Ġmorning": 1800,
      "Mommy": 1801,
      "Ġgrandma": 1802,
      "Ġce": 1803,
      "Ġmoved": 1804,
      "arm": 1805,
      "Ġwithout": 1806,
      "Ġwelcome": 1807,
      "Ġthinks": 1808,
      "Ġpurple": 1809,
      "ining": 1810,
      "Ġsail": 1811,
      "igh": 1812,
      "Ġshoes": 1813,
      "Ġpuddle": 1814,
      ".âĢĿ": 1815,
      "set": 1816,
      "Ġcreat": 1817,
      "Ġlon": 1818,
      "Ġliving": 1819,
      "Ġpush": 1820,
      "Ġlonely": 1821,
      "Amy": 1822,
      "ible": 1823,
      "Ġsitting": 1824,
      "Ġteddy": 1825,
      "Ġear": 1826,
      "Ġbarked": 1827,
      "Ġmad": 1828,
      "ises": 1829,
      "Ġcoat": 1830,
      "Ġsnack": 1831,
      "Ġcrab": 1832,
      "Ġparents": 1833,
      "fort": 1834,
      "Ġdanger": 1835,
      "Ġchee": 1836,
      "Ġfinally": 1837,
      "ased": 1838,
      "Ġbite": 1839,
      "llie": 1840,
      "Ġpet": 1841,
      "Ġshell": 1842,
      "ĠGra": 1843,
      "ass": 1844,
      "Ġdolls": 1845,
      "ĠBilly": 1846,
      "Ġdrag": 1847,
      "Ġmin": 1848,
      "Ġvill": 1849,
      "me": 1850,
      "Ġseed": 1851,
      "Ġwhe": 1852,
      "Ġscream": 1853,
      "Ġfan": 1854,
      "itch": 1855,
      "Ġspr": 1856,
      "Ġbask": 1857,
      "Ġmoney": 1858,
      "ush": 1859,
      "Ġbasket": 1860,
      "fish": 1861,
      "Ġpass": 1862,
      "!âĢĿ": 1863,
      "ich": 1864,
      "lla": 1865,
      "Ġsmo": 1866,
      "Ġhigher": 1867,
      "Ġpre": 1868,
      "Ġgetting": 1869,
      "unch": 1870,
      "Ġlake": 1871,
      "Ġmother": 1872,
      "Ġswings": 1873,
      "Ġdropped": 1874,
      "Ġshop": 1875,
      "Ġheart": 1876,
      "bow": 1877,
      "ches": 1878,
      "sy": 1879,
      "Ġsame": 1880,
      "Ġenough": 1881,
      "Ġpaw": 1882,
      "ons": 1883,
      "Ġspin": 1884,
      "Ġtwins": 1885,
      "Ġbelie": 1886,
      "isk": 1887,
      "cks": 1888,
      "Ġarri": 1889,
      "Ġsnake": 1890,
      "Ġsu": 1891,
      "Please": 1892,
      "Ġca": 1893,
      "ella": 1894,
      "althy": 1895,
      "Ġcoll": 1896,
      "app": 1897,
      "Ġstand": 1898,
      "Ġbring": 1899,
      "Ġdelicious": 1900,
      "Ġwhist": 1901,
      "Ġcheered": 1902,
      "Ġrainbow": 1903,
      "'ll": 1904,
      "iver": 1905,
      "sw": 1906,
      "Ġcorn": 1907,
      "Ġroad": 1908,
      "Ġsack": 1909,
      "iskers": 1910,
      "Ġbat": 1911,
      "Ġcaught": 1912,
      "Ġstre": 1913,
      "Ġansw": 1914,
      "Ġcute": 1915,
      "Ġvillage": 1916,
      "Ġmail": 1917,
      "Ġdays": 1918,
      "Ġherself": 1919,
      "Ġfarmer": 1920,
      "Ġshining": 1921,
      "ĠMimi": 1922,
      "Ġrob": 1923,
      "Ġsinging": 1924,
      "Ġbuck": 1925,
      "Ġra": 1926,
      "Ġje": 1927,
      "emy": 1928,
      "Ġph": 1929,
      "Ġfit": 1930,
      "OK": 1931,
      "Ġwore": 1932,
      "Ġtom": 1933,
      "Ġhoped": 1934,
      "Ġsear": 1935,
      "Ġcho": 1936,
      "sc": 1937,
      "Ġpower": 1938,
      "ĠTommy": 1939,
      "Ġtalking": 1940,
      "Ġyears": 1941,
      "Ġtasty": 1942,
      "Ġgentle": 1943,
      "Ġmine": 1944,
      "Ġstone": 1945,
      "Ġowner": 1946,
      "Ġbottle": 1947,
      "Ġletter": 1948,
      "Ġwoke": 1949,
      "Ġcheese": 1950,
      "ĠLe": 1951,
      "isa": 1952,
      "ĠBu": 1953,
      "Ġbelong": 1954,
      "Ġcarrot": 1955,
      "ol": 1956,
      "Ġben": 1957,
      "Ġspo": 1958,
      "Ġdangerous": 1959,
      "fused": 1960,
      "Ġpers": 1961,
      "Ġpile": 1962,
      "Ġjoy": 1963,
      "Ġbush": 1964,
      "br": 1965,
      "Ġtouc": 1966,
      "igg": 1967,
      "Ġshook": 1968,
      "Ġdragon": 1969,
      "Jack": 1970,
      "ian": 1971,
      "Ġinc": 1972,
      "Ġcour": 1973,
      "ĠBl": 1974,
      "Ġgrew": 1975,
      "Ġbread": 1976,
      "Ġmist": 1977,
      "Ġarrived": 1978,
      "Ġrobot": 1979,
      "Ġnose": 1980,
      "Finally": 1981,
      "eared": 1982,
      "irp": 1983,
      "Ġable": 1984,
      "Ġjuice": 1985,
      "ost": 1986,
      "Ġshake": 1987,
      "ier": 1988,
      "Ġfence": 1989,
      "una": 1990,
      "Ġtouched": 1991,
      "Ġshr": 1992,
      "ract": 1993,
      "col": 1994,
      "Ġeas": 1995,
      "ĠWhiskers": 1996,
      "Ġhorse": 1997,
      "Ġrope": 1998,
      "Ġprob": 1999,
      "Ġteac": 2000,
      "Ġpill": 2001,
      "Ġforever": 2002,
      "Ġpuppy": 2003,
      "Lila": 2004,
      "ama": 2005,
      "Ġcarry": 2006,
      "Ġpart": 2007,
      "lem": 2008,
      "ĠThank": 2009,
      "Ġcourse": 2010,
      "Ġbow": 2011,
      "ator": 2012,
      "Ġmost": 2013,
      "aughty": 2014,
      "idge": 2015,
      "Ġproblem": 2016,
      "Ġstars": 2017,
      "phant": 2018,
      "ĠBella": 2019,
      "Ġfew": 2020,
      "Ġlucky": 2021,
      "Ġkiss": 2022,
      "Ġnaughty": 2023,
      "Ġob": 2024,
      "Ġshy": 2025,
      "Ġrec": 2026,
      "Ġelephant": 2027,
      "ĠEmma": 2028,
      "Ġlunch": 2029,
      "Ġducks": 2030,
      "Ġband": 2031,
      "Ġkite": 2032,
      "Ġbench": 2033,
      "Ġmark": 2034,
      "Ġnut": 2035,
      "Ġcave": 2036,
      "Ġyog": 2037,
      "Ġspark": 2038,
      "aur": 2039,
      "Ġwra": 2040,
      "umb": 2041,
      "Ġseem": 2042,
      "ourn": 2043,
      "ĠRemy": 2044,
      "ountain": 2045,
      "Ġcray": 2046,
      "Ġupset": 2047,
      "Ġgiant": 2048,
      "irth": 2049,
      "Ġjourn": 2050,
      "Ġslowly": 2051,
      "Good": 2052,
      "epend": 2053,
      "Ġpocket": 2054,
      "Ġfeels": 2055,
      "urtle": 2056,
      "Ġwonderful": 2057,
      "Ġhiding": 2058,
      "ipped": 2059,
      "Ġshar": 2060,
      "Ġholding": 2061,
      "Ġtrou": 2062,
      "Ġpatient": 2063,
      "irthday": 2064,
      "Ġlive": 2065,
      "Ġtowards": 2066,
      "Ġsplas": 2067,
      "Ġbelieve": 2068,
      "Ġstreet": 2069,
      "Ġsharp": 2070,
      "Ġwar": 2071,
      "Ġkitten": 2072,
      "Ġspoon": 2073,
      "umpy": 2074,
      "Ġbugs": 2075,
      "Ġdirt": 2076,
      "Ġtaking": 2077,
      "ĠLeo": 2078,
      "Ġteach": 2079,
      "Ġteacher": 2080,
      "Ġstories": 2081,
      "ato": 2082,
      "ĠMark": 2083,
      "Ġshap": 2084,
      "Ġbusy": 2085,
      "Ġdes": 2086,
      "Ġmagical": 2087,
      "Ġnoises": 2088,
      "Ġpuzz": 2089,
      "Ġsuc": 2090,
      "iling": 2091,
      "Ġbucket": 2092,
      "Ġneck": 2093,
      "Ġhugs": 2094,
      "gly": 2095,
      "Ġhoney": 2096,
      "Ġcard": 2097,
      "ors": 2098,
      "umber": 2099,
      "Ġbirthday": 2100,
      "read": 2101,
      "Ġdaddy": 2102,
      "Ġdriver": 2103,
      "Ġdrove": 2104,
      "erry": 2105,
      "Ġcloth": 2106,
      "Ġpromise": 2107,
      "Ġlate": 2108,
      "Ġugly": 2109,
      "Ġslid": 2110,
      "Ġmeet": 2111,
      "adow": 2112,
      "Ġlad": 2113,
      "irt": 2114,
      "Ġplane": 2115,
      "Ġturtle": 2116,
      "Ġsick": 2117,
      "elly": 2118,
      "Ġshapes": 2119,
      "Ġpop": 2120,
      "eter": 2121,
      "Ġcir": 2122,
      "ular": 2123,
      "fortable": 2124,
      "ĠOn": 2125,
      "Ġmil": 2126,
      "Ġbell": 2127,
      "Ġcookie": 2128,
      "Ġmilk": 2129,
      "unt": 2130,
      "Ġrude": 2131,
      "oop": 2132,
      "Ġyoung": 2133,
      "Ġval": 2134,
      "Ġstorm": 2135,
      "Ġwhistle": 2136,
      "Ġladder": 2137,
      "ove": 2138,
      "Ġwasn": 2139,
      "Ġboss": 2140,
      "Ġcover": 2141,
      "Ġgrab": 2142,
      "ize": 2143,
      "Hey": 2144,
      "Ġsounds": 2145,
      "Ġamazed": 2146,
      "ball": 2147,
      "Ġmot": 2148,
      "ĠLisa": 2149,
      "Ġhelpful": 2150,
      "Ġseek": 2151,
      "Ġcoin": 2152,
      "Ġprincess": 2153,
      "Ġdrive": 2154,
      "Ġfold": 2155,
      "ling": 2156,
      "Ġinstead": 2157,
      "Ġnet": 2158,
      "ĠFinally": 2159,
      "Ġban": 2160,
      "ert": 2161,
      "ĠJim": 2162,
      "Ġfinish": 2163,
      "ĠBlue": 2164,
      "Ġmach": 2165,
      "alm": 2166,
      "Ġdisapp": 2167,
      "Ġtreats": 2168,
      "Ġworm": 2169,
      "ĠCome": 2170,
      "Ġsel": 2171,
      "Ġsug": 2172,
      "Ġwide": 2173,
      "ens": 2174,
      "let": 2175,
      "pping": 2176,
      "Ġspicy": 2177,
      "ale": 2178,
      "not": 2179,
      "Ġballs": 2180,
      "ĠDog": 2181,
      "Ġtrip": 2182,
      "ere": 2183,
      "Ġthin": 2184,
      "Ġcannot": 2185,
      "Sure": 2186,
      "Ġinv": 2187,
      "Ġgray": 2188,
      "Ġchew": 2189,
      "irpy": 2190,
      "Ġspid": 2191,
      "Ġorgan": 2192,
      "Ġpath": 2193,
      "ĠAnn": 2194,
      "Ġlast": 2195,
      "Ġgrumpy": 2196,
      "Ġjoke": 2197,
      "Ġsandw": 2198,
      "Be": 2199,
      "Ġbanan": 2200,
      "Ġcomes": 2201,
      "Ġsticks": 2202,
      "Ġwatching": 2203,
      "Ġstepped": 2204,
      "Ġmissed": 2205,
      "Ġselfish": 2206,
      "Ġstring": 2207,
      "Of": 2208,
      "ub": 2209,
      "Ġjew": 2210,
      "Ġclever": 2211,
      "Ġent": 2212,
      "Ġsuddenly": 2213,
      "Ġpan": 2214,
      "Ġser": 2215,
      "Ġwave": 2216,
      "Ġlaw": 2217,
      "Ġants": 2218,
      "Ġjewel": 2219,
      "Ġspe": 2220,
      "Ġsmooth": 2221,
      "erest": 2222,
      "Ġmed": 2223,
      "Ġchange": 2224,
      "Ġsleepy": 2225,
      "Ġnothing": 2226,
      "Ġconfused": 2227,
      "ĠJust": 2228,
      "ĠMomo": 2229,
      "dge": 2230,
      "Ġgrate": 2231,
      "to": 2232,
      "up": 2233,
      "Ġjelly": 2234,
      "Ġdrum": 2235,
      "Ġbark": 2236,
      "Ġdist": 2237,
      "amed": 2238,
      "Ġinterest": 2239,
      "ever": 2240,
      "Ġtie": 2241,
      "bbles": 2242,
      "Ġgrateful": 2243,
      "Ġfighting": 2244,
      "Ġphone": 2245,
      "mer": 2246,
      "Ġbone": 2247,
      "pper": 2248,
      "Ġforget": 2249,
      "Ġhuge": 2250,
      "Ġpeace": 2251,
      "St": 2252,
      "lower": 2253,
      "Ġchased": 2254,
      "Ġmotor": 2255,
      "den": 2256,
      "Ġsal": 2257,
      "Ġthough": 2258,
      "Ġash": 2259,
      "Ġtakes": 2260,
      "Ġtea": 2261,
      "Ġadventures": 2262,
      "ward": 2263,
      "ery": 2264,
      "Ġfixed": 2265,
      "ĠDaddy": 2266,
      "izzy": 2267,
      "Ġhidden": 2268,
      "Ġpillow": 2269,
      "Ġmachine": 2270,
      "Later": 2271,
      "ĠBunny": 2272,
      "Ġtaste": 2273,
      "ĠChirpy": 2274,
      "ina": 2275,
      "ung": 2276,
      "ained": 2277,
      "ĠFred": 2278,
      "Ġimag": 2279,
      "Ġacross": 2280,
      "Ġarms": 2281,
      "oof": 2282,
      "oose": 2283,
      "Ġcart": 2284,
      "Ġalong": 2285,
      "ĠJill": 2286,
      "Ġmatch": 2287,
      "ocked": 2288,
      "Ġwild": 2289,
      "oph": 2290,
      "Ġmistake": 2291,
      "Ġlater": 2292,
      "Ġbeak": 2293,
      "ĠCat": 2294,
      "Ġsongs": 2295,
      "Ġdi": 2296,
      "Ġshelf": 2297,
      "Ġwrite": 2298,
      "Ġfle": 2299,
      "Ġcross": 2300,
      "Ġring": 2301,
      "Ġsheep": 2302,
      "Ġjog": 2303,
      "Ġchick": 2304,
      "Ġforgive": 2305,
      "Ġoven": 2306,
      "ĠBe": 2307,
      "box": 2308,
      "?âĢĿ": 2309,
      "Soon": 2310,
      "stion": 2311,
      "Ġseat": 2312,
      "Ġlem": 2313,
      "Ġlanded": 2314,
      "Ġdrew": 2315,
      "Ġdeer": 2316,
      "Ġexplor": 2317,
      "Ġwheel": 2318,
      "Ġinteresting": 2319,
      "Ġexp": 2320,
      "Ġmoon": 2321,
      "Ġpuzzle": 2322,
      "yard": 2323,
      "Ġdogs": 2324,
      "Ġlegs": 2325,
      "ity": 2326,
      "ult": 2327,
      "ĠOllie": 2328,
      "Ġav": 2329,
      "Ġbackyard": 2330,
      "Ġpowerful": 2331,
      "Ġeasy": 2332,
      "llo": 2333,
      "Ġneigh": 2334,
      "Ġglow": 2335,
      "Ġcraw": 2336,
      "ĠGrandma": 2337,
      "aw": 2338,
      "Ġzoom": 2339,
      "Ġquestion": 2340,
      "Ġbossy": 2341,
      "ming": 2342,
      "ĠN": 2343,
      "Ġlay": 2344,
      "ugg": 2345,
      "Ġret": 2346,
      "Ġspider": 2347,
      "Ġpack": 2348,
      "Ġwash": 2349,
      "Ġworking": 2350,
      "arge": 2351,
      "iger": 2352,
      "Ġreturn": 2353,
      "Ġtid": 2354,
      "ndp": 2355,
      "Ġsave": 2356,
      "Ġmessy": 2357,
      "Ġneighb": 2358,
      "live": 2359,
      "Ġsour": 2360,
      "Ġrad": 2361,
      "Ġonto": 2362,
      "ĠLuna": 2363,
      "Ġlife": 2364,
      "Ġmyster": 2365,
      "Ġfoot": 2366,
      "oc": 2367,
      "rill": 2368,
      "To": 2369,
      "bar": 2370,
      "mb": 2371,
      "Ġcalm": 2372,
      "Ġtrue": 2373,
      "Ġbought": 2374,
      "Ġhealthy": 2375,
      "Ġappeared": 2376,
      "Ġboring": 2377,
      "est": 2378,
      "Ġwom": 2379,
      "Ġlift": 2380,
      "Ġwhole": 2381,
      "Ġgives": 2382,
      "Ġsplashed": 2383,
      "Ġwoman": 2384,
      "ĠMolly": 2385,
      "Ġstep": 2386,
      "Ġgold": 2387,
      "Ġloves": 2388,
      "Ġhope": 2389,
      "ually": 2390,
      "ĠWith": 2391,
      "Ġtrust": 2392,
      "Kitty": 2393,
      "ĠTV": 2394,
      "Ġpool": 2395,
      "unk": 2396,
      "Ġfruits": 2397,
      "orrow": 2398,
      "Ġlonger": 2399,
      "Ġwaiting": 2400,
      "Ġsuch": 2401,
      "iting": 2402,
      "Ġlarge": 2403,
      "Ġnote": 2404,
      "Ġsplash": 2405,
      "Ġgently": 2406,
      "Ġtidy": 2407,
      "Ġqueen": 2408,
      "ment": 2409,
      "ned": 2410,
      "Ġba": 2411,
      "irr": 2412,
      "eth": 2413,
      "Ġfaces": 2414,
      "Ġwondered": 2415,
      "Ġsmelly": 2416,
      "Ġsaved": 2417,
      "Ġstret": 2418,
      "pty": 2419,
      "Ġmap": 2420,
      "ork": 2421,
      "Ġlovely": 2422,
      "Ġswimming": 2423,
      "Ġsnowman": 2424,
      "Ġempty": 2425,
      "Ġsupp": 2426,
      "Ġchocol": 2427,
      "Ġpract": 2428,
      "Ġkick": 2429,
      "ife": 2430,
      "pect": 2431,
      "Ġbounce": 2432,
      "My": 2433,
      "sp": 2434,
      "ars": 2435,
      "Ġgather": 2436,
      "Ġshirt": 2437,
      "Ġcarried": 2438,
      "ipe": 2439,
      "ĠGo": 2440,
      "Ġclouds": 2441,
      "osaur": 2442,
      "Ġtomorrow": 2443,
      "Sally": 2444,
      "ĠIf": 2445,
      "ope": 2446,
      "Ġanyone": 2447,
      "Ġrocket": 2448,
      "And": 2449,
      "Ġtape": 2450,
      "Ġcou": 2451,
      "Ġpin": 2452,
      "ĠSt": 2453,
      "Ġfeather": 2454,
      "Ġcheer": 2455,
      "Ġact": 2456,
      "Ġhum": 2457,
      "Ġfing": 2458,
      "Ġmaybe": 2459,
      "ont": 2460,
      "Ġputs": 2461,
      "onest": 2462,
      "Ġplate": 2463,
      "Ġweak": 2464,
      "rass": 2465,
      "Ġscar": 2466,
      "Ġembar": 2467,
      "Ġembarrass": 2468,
      "ek": 2469,
      "Ġboot": 2470,
      "Ġscreamed": 2471,
      "ndpa": 2472,
      "ose": 2473,
      "ĠSp": 2474,
      "Ġrac": 2475,
      "Ġcorner": 2476,
      "Ġperson": 2477,
      "Ġhonest": 2478,
      "Ġsmelled": 2479,
      "Ġashamed": 2480,
      "Ġpour": 2481,
      "Ġpretended": 2482,
      "Ġspray": 2483,
      "Come": 2484,
      "Ġign": 2485,
      "Ġfake": 2486,
      "ĠTr": 2487,
      "Ġmind": 2488,
      "Ġclock": 2489,
      "Ġplaces": 2490,
      "Ġdancing": 2491,
      "Ġdinosaur": 2492,
      "Ġanswer": 2493,
      "Ġchocolate": 2494,
      "Ġwearing": 2495,
      "Ġgoes": 2496,
      "Ġvan": 2497,
      "Ġbarn": 2498,
      "Ġfront": 2499,
      "Ġjumping": 2500,
      "Ġrub": 2501,
      "Ġseemed": 2502,
      "vous": 2503,
      "Ġaf": 2504,
      "Ġline": 2505,
      "Ġrare": 2506,
      "Ġshark": 2507,
      "Ġreg": 2508,
      "Ġdig": 2509,
      "elp": 2510,
      "Ġjet": 2511,
      "ĠWhy": 2512,
      "erly": 2513,
      "Ġprot": 2514,
      "Ġzoo": 2515,
      "Ġprince": 2516,
      "Ġjourney": 2517,
      "ĠPlease": 2518,
      "Ġballoons": 2519,
      "Ġbuilding": 2520,
      "ĠDoggy": 2521,
      "ĠTheir": 2522,
      "ones": 2523,
      "Ġcozy": 2524,
      "Ġsuccess": 2525,
      "ness": 2526,
      "raid": 2527,
      "Ġnearby": 2528,
      "Ġclass": 2529,
      "Ġfancy": 2530,
      "Ġlemon": 2531,
      "Ġwing": 2532,
      "Ġsol": 2533,
      "Ġfeet": 2534,
      "Ġimpress": 2535,
      "Ġcreative": 2536,
      "Ġsque": 2537,
      "Ġner": 2538,
      "Ġhang": 2539,
      "scape": 2540,
      "Ġafraid": 2541,
      "Ġwaff": 2542,
      "Ġhello": 2543,
      "Ġsold": 2544,
      "Ġlazy": 2545,
      "Ġscarf": 2546,
      "Ġnervous": 2547,
      "we": 2548,
      "Ġgun": 2549,
      "Ġknocked": 2550,
      "Ġteeth": 2551,
      "Ġmarch": 2552,
      "ĠSomet": 2553,
      "Ġcrayons": 2554,
      "Ġmis": 2555,
      "Ġnoisy": 2556,
      "ĠDon": 2557,
      "Ġtrouble": 2558,
      "Ġsur": 2559,
      "alk": 2560,
      "Ġtele": 2561,
      "bble": 2562,
      "Ġprint": 2563,
      "Help": 2564,
      "Ġstat": 2565,
      "ĠBobby": 2566,
      "Ġcleaned": 2567,
      "icked": 2568,
      "Ġhero": 2569,
      "Ġstood": 2570,
      "Ġwolf": 2571,
      "ĠJerry": 2572,
      "Ġpolice": 2573,
      "nic": 2574,
      "Ġfil": 2575,
      "Ġcher": 2576,
      "rag": 2577,
      "urse": 2578,
      "Ġword": 2579,
      "Ġpicnic": 2580,
      "Ġgroup": 2581,
      "ado": 2582,
      "Ġfeed": 2583,
      "Ġtries": 2584,
      "Ġmirr": 2585,
      "itter": 2586,
      "Ġcloset": 2587,
      "Ġstatue": 2588,
      "Ġeag": 2589,
      "Ġdecor": 2590,
      "issors": 2591,
      "Ġmatter": 2592,
      "ĠTogether": 2593,
      "Stop": 2594,
      "ute": 2595,
      "Ġbridge": 2596,
      "aughter": 2597,
      "oomy": 2598,
      "Ġsandwich": 2599,
      "Ġmirror": 2600,
      "Ġyarn": 2601,
      "izz": 2602,
      "Ġrelie": 2603,
      "imp": 2604,
      "Ġgate": 2605,
      "Ġmoms": 2606,
      "Ġknee": 2607,
      "Ġchase": 2608,
      "Ġmountain": 2609,
      "Ġnumber": 2610,
      "ĠSome": 2611,
      "lebr": 2612,
      "Ġsmiling": 2613,
      "Ġwis": 2614,
      "Ġtoast": 2615,
      "Ġscissors": 2616,
      "Ġmeasure": 2617,
      "ĠElla": 2618,
      "Ġpointed": 2619,
      "Ġcelebr": 2620,
      "Ġjeep": 2621,
      "Ġsearch": 2622,
      "uce": 2623,
      "Ġbal": 2624,
      "Ġspace": 2625,
      "Ġbrush": 2626,
      "Ġrich": 2627,
      "Ġpeaceful": 2628,
      "Ġicy": 2629,
      "Ġfear": 2630,
      "Ġglass": 2631,
      "Ġpainted": 2632,
      "Ġmighty": 2633,
      "Ġdaughter": 2634,
      "Ġclap": 2635,
      "Ġsword": 2636,
      "Ġfurry": 2637,
      "Ġeggs": 2638,
      "Dad": 2639,
      "ser": 2640,
      "Ġap": 2641,
      "Ġfis": 2642,
      "Ġdish": 2643,
      "Ġrat": 2644,
      "Ġstir": 2645,
      "Ġseeds": 2646,
      "ventually": 2647,
      "ual": 2648,
      "Ġthese": 2649,
      "arl": 2650,
      "gest": 2651,
      "Ġembarrassed": 2652,
      "ote": 2653,
      "Ġcri": 2654,
      "any": 2655,
      "Ġjam": 2656,
      "Ġclear": 2657,
      "Ġfier": 2658,
      "Ġsugar": 2659,
      "ĠMy": 2660,
      "Ġincred": 2661,
      "Ġstra": 2662,
      "ĠAl": 2663,
      "ĠDucky": 2664,
      "Ġplants": 2665,
      "Ġbald": 2666,
      "Ġfierce": 2667,
      "Ġbanana": 2668,
      "Ġexploring": 2669,
      "zzy": 2670,
      "Ġwand": 2671,
      "era": 2672,
      "Ġbranches": 2673,
      "cycle": 2674,
      "Ġcircle": 2675,
      "Ġincredible": 2676,
      "lves": 2677,
      "Ġbake": 2678,
      "Ġpri": 2679,
      "Ġmuff": 2680,
      "ensive": 2681,
      "Ġter": 2682,
      "Ġwake": 2683,
      "Ġrough": 2684,
      "ĠMary": 2685,
      "Ġpres": 2686,
      "Ġrelieved": 2687,
      "rated": 2688,
      "ĠHow": 2689,
      "bby": 2690,
      "Ġexpensive": 2691,
      "ced": 2692,
      "Ġhur": 2693,
      "Ġsaf": 2694,
      "Ġshadow": 2695,
      "Ġrose": 2696,
      "Ġmixed": 2697,
      "Ġadm": 2698,
      "Ġcrown": 2699,
      "Ġber": 2700,
      "Ġtooth": 2701,
      "isp": 2702,
      "Ġkicked": 2703,
      "Ġclown": 2704,
      "Ġunl": 2705,
      "Ġeng": 2706,
      "Ġtasted": 2707,
      "Ġberries": 2708,
      "Ġfrag": 2709,
      "Ġumb": 2710,
      "Ġmotorcycle": 2711,
      "Ġumbre": 2712,
      "Ġtent": 2713,
      "Ġcage": 2714,
      "iff": 2715,
      "ĠTrue": 2716,
      "Ġterri": 2717,
      "ory": 2718,
      "Ġoce": 2719,
      "Ġpolite": 2720,
      "Ġstubb": 2721,
      "Ġfragile": 2722,
      "Ġocean": 2723,
      "gu": 2724,
      "Ġdull": 2725,
      "Ġdizzy": 2726,
      "Ġpay": 2727,
      "Ġmill": 2728,
      "Ġwhisp": 2729,
      "Ġfrust": 2730,
      "Ġacorn": 2731,
      "ym": 2732,
      "Ġcro": 2733,
      "Ġdrank": 2734,
      "Ġdepend": 2735,
      "Ġcap": 2736,
      "Ġwashed": 2737,
      "Ġrug": 2738,
      "Ġspread": 2739,
      "Ġsunf": 2740,
      "aken": 2741,
      "Ġbathroom": 2742,
      "ĠSometimes": 2743,
      "Ġstubborn": 2744,
      "pid": 2745,
      "rob": 2746,
      "Ġtaught": 2747,
      "Ġwitch": 2748,
      "Ġthick": 2749,
      "Ġstri": 2750,
      "Ġtool": 2751,
      "Ġbecome": 2752,
      "asp": 2753,
      "Ġtwist": 2754,
      "Ġrespect": 2755,
      "kin": 2756,
      "Ġhoop": 2757,
      "Ġgigg": 2758,
      "Ġsoap": 2759,
      "Ġmush": 2760,
      "Ġflag": 2761,
      "Ġbloom": 2762,
      "Ġguess": 2763,
      "Ġfrustrated": 2764,
      "Ġ'": 2765,
      "Ġtaken": 2766,
      "Ġfinding": 2767,
      "Ġstupid": 2768,
      "Ġspoiled": 2769,
      "Ġmysterious": 2770,
      "Ġprotect": 2771,
      "Ġgen": 2772,
      "Ġrh": 2773,
      "umsy": 2774,
      "Ġclumsy": 2775,
      "Ġpoor": 2776,
      "Ġparrot": 2777,
      "airs": 2778,
      "Ġdisco": 2779,
      "Ġvalue": 2780,
      "Ġdependable": 2781,
      "la": 2782,
      "alous": 2783,
      "Ġscare": 2784,
      "Ġcomfortable": 2785,
      "Ġbreath": 2786,
      "Ġunderstood": 2787,
      "Ġjealous": 2788,
      "robe": 2789,
      "Ġaunt": 2790,
      "Ġburn": 2791,
      "Ġlog": 2792,
      "Ġlead": 2793,
      "Tommy": 2794,
      "Who": 2795,
      "shine": 2796,
      "ĠBird": 2797,
      "Ġclay": 2798,
      "Ġwouldn": 2799,
      "Ġhats": 2800,
      "Ġrelax": 2801,
      "Ġmushroom": 2802,
      "cil": 2803,
      "Ġtiger": 2804,
      "getable": 2805,
      "Ġyourself": 2806,
      "Ġfamous": 2807,
      "Ġpencil": 2808,
      "Ġvegetable": 2809,
      "Ġpotato": 2810,
      "Ġyoga": 2811,
      "cient": 2812,
      "dile": 2813,
      "ts": 2814,
      "Ġpant": 2815,
      "Ġstuff": 2816,
      "Ġvine": 2817,
      "codile": 2818,
      "Ġsearched": 2819,
      "Ġsquee": 2820,
      "Ġgener": 2821,
      "Ġhay": 2822,
      "Ġship": 2823,
      "Ġsunshine": 2824,
      "Ġyelled": 2825,
      "Ġengine": 2826,
      "Ġumbrella": 2827,
      "ĠNo": 2828,
      "Ġasking": 2829,
      "usual": 2830,
      "Ġunusual": 2831,
      "Ġmedic": 2832,
      "kn": 2833,
      "Ġfine": 2834,
      "Ġfool": 2835,
      "orry": 2836,
      "Ġancient": 2837,
      "Ġblow": 2838,
      "ours": 2839,
      "Ġsnee": 2840,
      "Ġending": 2841,
      "Ġhears": 2842,
      "Ġdrop": 2843,
      "Ġwagon": 2844,
      "Ġcreature": 2845,
      "Ġcollect": 2846,
      "Ġcrocodile": 2847,
      "Ġmedicine": 2848,
      "oppy": 2849,
      "Ġ3": 2850,
      "Ġtick": 2851,
      "Ġadd": 2852,
      "Ġbitter": 2853,
      "Ġtowel": 2854,
      "Ġtest": 2855,
      "Ġdead": 2856,
      "Ġdiff": 2857,
      "Ġcouch": 2858,
      "izza": 2859,
      "Ġpresent": 2860,
      "Ġterrible": 2861,
      "Ġtoug": 2862,
      "Ġfat": 2863,
      "inal": 2864,
      "reen": 2865,
      "Ġmel": 2866,
      "iginal": 2867,
      "ĠBear": 2868,
      "Ġlock": 2869,
      "Ġunkn": 2870,
      "Ġmov": 2871,
      "Ġcrazy": 2872,
      "Ġdrawing": 2873,
      "Ġpaws": 2874,
      "Ġdiffic": 2875,
      "Ġtough": 2876,
      "Ġmic": 2877,
      "erable": 2878,
      "Ġham": 2879,
      "selves": 2880,
      "Ġlose": 2881,
      "Ġmiserable": 2882,
      "Ġunknown": 2883,
      "Ġstones": 2884,
      "Ġexam": 2885,
      "Ġexplained": 2886,
      "Ġneighbor": 2887,
      "gust": 2888,
      "port": 2889,
      "xible": 2890,
      "lderly": 2891,
      "Ġasleep": 2892,
      "Ġroar": 2893,
      "Ġnods": 2894,
      "Ġnosy": 2895,
      "Ġvase": 2896,
      "Ġoriginal": 2897,
      "Ġmetal": 2898,
      "Here": 2899,
      "Ġdest": 2900,
      "Ġsalad": 2901,
      "Ġpants": 2902,
      "Ġgenerous": 2903,
      "Ġfoolish": 2904,
      "Ġdifficult": 2905,
      "host": 2906,
      "met": 2907,
      "Ġtap": 2908,
      "Ġhar": 2909,
      "Ġdug": 2910,
      "ighed": 2911,
      "Ġoat": 2912,
      "Ġstack": 2913,
      "iable": 2914,
      "Ġbubbles": 2915,
      "Ġquar": 2916,
      "Ġdisgust": 2917,
      "Ġbottom": 2918,
      "Ġdelicate": 2919,
      "Ġwrap": 2920,
      "Jim": 2921,
      "ique": 2922,
      "anged": 2923,
      "Ġwhich": 2924,
      "Ġsell": 2925,
      "Ġquarrel": 2926,
      "Ġcries": 2927,
      "Ġghost": 2928,
      "Ġescape": 2929,
      "Timmy": 2930,
      "Ġunique": 2931,
      "Ġmoving": 2932,
      "Ġjolly": 2933,
      "Ġorganized": 2934,
      "iv": 2935,
      "Ġhelmet": 2936,
      "ĠBenny": 2937,
      "Ġchest": 2938,
      "ĠWhile": 2939,
      "Ġlow": 2940,
      "Ġteam": 2941,
      "Ġshoe": 2942,
      "Ġpasta": 2943,
      "Ġcovered": 2944,
      "Every": 2945,
      "Ġpizza": 2946,
      "Ġguit": 2947,
      "Ġswan": 2948,
      "Ġwrote": 2949,
      "Ġjoined": 2950,
      "Ġmarket": 2951,
      "Ġbalance": 2952,
      "Ġsunflower": 2953,
      "Molly": 2954,
      "iant": 2955,
      "ond": 2956,
      "Ġhose": 2957,
      "Ġsquare": 2958,
      "Ġthankful": 2959,
      "apped": 2960,
      "dle": 2961,
      "light": 2962,
      "lace": 2963,
      "yal": 2964,
      "Ġcand": 2965,
      "Ġsock": 2966,
      "ume": 2967,
      "Ġlab": 2968,
      "ĠYour": 2969,
      "Ġpray": 2970,
      "Ġdisgusting": 2971,
      "ground": 2972,
      "ik": 2973,
      "anut": 2974,
      "ĠMama": 2975,
      "Ġpeanut": 2976,
      "ĠBuzz": 2977,
      "Ġnecklace": 2978,
      "Ġind": 2979,
      "Ġfour": 2980,
      "ident": 2981,
      "igator": 2982,
      "owed": 2983,
      "Ġgets": 2984,
      "Ġglue": 2985,
      "Ġhairy": 2986,
      "ĠJenny": 2987,
      "Ġflexible": 2988,
      "Ġguitar": 2989,
      "Ġelderly": 2990,
      "unn": 2991,
      "Ġcharm": 2992,
      "Ġslipped": 2993,
      "Ġyogurt": 2994,
      "Ġhorn": 2995,
      "Ġalligator": 2996,
      "Ġgoat": 2997,
      "berry": 2998,
      "Ġwallet": 2999,
      "Ġspotted": 3000,
      "Ġfisher": 3001,
      "ying": 3002,
      "Ġwander": 3003,
      "Ġcab": 3004,
      "Ġthirst": 3005,
      "Ġchanged": 3006,
      "ctus": 3007,
      "Ġremind": 3008,
      "Ġignor": 3009,
      "com": 3010,
      "Ġwaves": 3011,
      "ĠMany": 3012,
      "Ġloyal": 3013,
      "Ġcats": 3014,
      "Ġfright": 3015,
      "ellig": 3016,
      "Ġord": 3017,
      "Ġbored": 3018,
      "Ġborrow": 3019,
      "rilliant": 3020,
      "Ġfinger": 3021,
      "Ġcharming": 3022,
      "old": 3023,
      "Ġbrilliant": 3024,
      "Ġfig": 3025,
      "ates": 3026,
      "Ġintellig": 3027,
      "ache": 3028,
      "Ġwrapped": 3029,
      "Ġraced": 3030,
      "Ġgem": 3031,
      "Ġroof": 3032,
      "Ġshine": 3033,
      "ĠSammy": 3034,
      "oby": 3035,
      "Ġboats": 3036,
      "Ġtriang": 3037,
      "Ġhammer": 3038,
      "Ġcabin": 3039,
      "Ġthirsty": 3040,
      "enny": 3041,
      "ĠBr": 3042,
      "Ġbody": 3043,
      "Ġchalk": 3044,
      "Ġgloomy": 3045,
      "ĠPe": 3046,
      "Ġshoot": 3047,
      "Ġpenny": 3048,
      "Ġpengu": 3049,
      "Ġeager": 3050,
      "cles": 3051,
      "ĠTiny": 3052,
      "Ġnorm": 3053,
      "Ġstream": 3054,
      "Ġwhale": 3055,
      "Ġspent": 3056,
      "ages": 3057,
      "Ġprun": 3058,
      "Ġexciting": 3059,
      "ĠJimmy": 3060,
      "Ġintelligent": 3061,
      "If": 3062,
      "Ġer": 3063,
      "Ġtied": 3064,
      "Ġpir": 3065,
      "Ġnoteb": 3066,
      "Ġliz": 3067,
      "Ġharder": 3068,
      "Ġspinning": 3069,
      "Ġserious": 3070,
      "Together": 3071,
      "Ġimpressive": 3072,
      "Ġnormal": 3073,
      "Ġnotebook": 3074,
      "How": 3075,
      "erp": 3076,
      "ilt": 3077,
      "Ġfrown": 3078,
      "Ġpepper": 3079,
      "ĠPolly": 3080,
      "Ġreliable": 3081,
      "Ġfisherman": 3082,
      "most": 3083,
      "Ġshade": 3084,
      "Ġthoughtful": 3085,
      "Ġenorm": 3086,
      "Ġbarber": 3087,
      "Inside": 3088,
      "Ġveil": 3089,
      "Ġsolve": 3090,
      "Ġwaffle": 3091,
      "iki": 3092,
      "Ġenormous": 3093,
      "iness": 3094,
      "Ġlamp": 3095,
      "irit": 3096,
      "Ġbean": 3097,
      "Ġalmost": 3098,
      "Ġyours": 3099,
      "Ġhurts": 3100,
      "aze": 3101,
      "azz": 3102,
      "Ġarrow": 3103,
      "Ġcactus": 3104,
      "ependent": 3105,
      "Ġfrightened": 3106,
      "Me": 3107,
      "Ġnail": 3108,
      "celet": 3109,
      "Ġref": 3110,
      "ĠInstead": 3111,
      "Ġbracelet": 3112,
      "Ġruined": 3113,
      "Ġcupboard": 3114,
      "Ġchicken": 3115,
      "Ġdiscover": 3116,
      "Ġmovie": 3117,
      "und": 3118,
      "Ġgoose": 3119,
      "Ġspirit": 3120,
      "Ġscr": 3121,
      "Ġtrump": 3122,
      "Ġplanet": 3123,
      "Ġwheat": 3124,
      "Ġpopular": 3125,
      "Ġstraw": 3126,
      "Ġlizard": 3127,
      "Sorry": 3128,
      "appy": 3129,
      "Ġpress": 3130,
      "Ġchu": 3131,
      "Ġsnacks": 3132,
      "Ġcheerful": 3133,
      "Ġtrumpet": 3134,
      "fted": 3135,
      "ud": 3136,
      "Ġtag": 3137,
      "Ġcomet": 3138,
      "ĠEven": 3139,
      "Ġuseful": 3140,
      "ĠBrown": 3141,
      "Ġchubby": 3142,
      "Are": 3143,
      "Ġtimes": 3144,
      "atter": 3145,
      "Ġshore": 3146,
      "als": 3147,
      "Ġhouses": 3148,
      "Ġsteal": 3149,
      "Ġshells": 3150,
      "Ġrecord": 3151,
      "Ġdestro": 3152,
      "Where": 3153,
      "bled": 3154,
      "xious": 3155,
      "Ġolive": 3156,
      "Ġanxious": 3157,
      "Ġhopping": 3158,
      "Ġmoder": 3159,
      "Ġtrucks": 3160,
      "Ġregular": 3161,
      "Ġtriangle": 3162,
      "Ġwip": 3163,
      "Ġwire": 3164,
      "edient": 3165,
      "Ġwealthy": 3166,
      "Ġskull": 3167,
      "Ġneeds": 3168,
      "Ġwalks": 3169,
      "Ġtomato": 3170,
      "Ġreturned": 3171,
      "edy": 3172,
      "Ġmop": 3173,
      "Ġheal": 3174,
      "ilty": 3175,
      "Ġweird": 3176,
      "Ġguilty": 3177,
      "Ġbatter": 3178,
      "Ġobedient": 3179,
      "Ġnuts": 3180,
      "Ġcartoon": 3181,
      "Ġmodern": 3182,
      "aff": 3183,
      "Ġpun": 3184,
      "chair": 3185,
      "Ġflash": 3186,
      "Ġenc": 3187,
      "Ġrestless": 3188,
      "ebra": 3189,
      "Ġpassed": 3190,
      "Ġsuccessful": 3191,
      "Ġindependent": 3192,
      "land": 3193,
      "Ġmid": 3194,
      "Ġrod": 3195,
      "Ġflute": 3196,
      "Ġcareless": 3197,
      "Ġsquash": 3198,
      "Ġzebra": 3199,
      "cident": 3200,
      "Ġpian": 3201,
      "atch": 3202,
      "oto": 3203,
      "Ġcaterp": 3204,
      "Ġfridge": 3205,
      "Ġcollar": 3206,
      "Ġstanding": 3207,
      "Ġavoc": 3208,
      "Ġcaterpill": 3209,
      "io": 3210,
      "Ġlean": 3211,
      "inky": 3212,
      "Ġcryst": 3213,
      "Ġarmchair": 3214,
      "Ġpiano": 3215,
      "Mum": 3216,
      "ging": 3217,
      "pes": 3218,
      "Ġtire": 3219,
      "Ġsighed": 3220,
      "Ġknowing": 3221,
      "Ġgrace": 3222,
      "Ġtwig": 3223,
      "Ġbuilt": 3224,
      "Ġtricks": 3225,
      "Ġbelonged": 3226,
      "Ġcaterpillar": 3227,
      "oot": 3228,
      "Ġdough": 3229,
      "amond": 3230,
      "Ġhelps": 3231,
      "Ġmeant": 3232,
      "Ġpicks": 3233,
      "Ġtells": 3234,
      "Ġperform": 3235,
      "Ġfigure": 3236,
      "hip": 3237,
      "Ġsuit": 3238,
      "Ġharm": 3239,
      "Ġgar": 3240,
      "Ġplayful": 3241,
      "Ġang": 3242,
      "Ġisland": 3243,
      "Ġsmaller": 3244,
      "Ġbedroom": 3245,
      "Ġaccident": 3246,
      "Ġdiamond": 3247,
      "Ġmiddle": 3248,
      "Ġadded": 3249,
      "Ġdeter": 3250,
      "Ġhalf": 3251,
      "Ġyaw": 3252,
      "esday": 3253,
      "Ġpro": 3254,
      "Ġkissed": 3255,
      "Ġspeed": 3256,
      "ĠTina": 3257,
      "Ġdove": 3258,
      "Ġfriendship": 3259,
      "ict": 3260,
      "Ġtrap": 3261,
      "Ġtrick": 3262,
      "Ġpige": 3263,
      "Ġanswered": 3264,
      "Ġpersist": 3265,
      "Ġdestroy": 3266,
      "Ġcrystal": 3267,
      "ray": 3268,
      "omes": 3269,
      "atient": 3270,
      "Ġrise": 3271,
      "Ġlibr": 3272,
      "ĠMiss": 3273,
      "Ġcost": 3274,
      "Ġshows": 3275,
      "ĠBuzzy": 3276,
      "Ġshrimp": 3277,
      "Ġstretch": 3278,
      "Ġdeterm": 3279,
      "Ġpersistent": 3280,
      "Ġtank": 3281,
      "Ġbicy": 3282,
      "inted": 3283,
      "Ġlifted": 3284,
      "ĠWill": 3285,
      "Ġimpatient": 3286,
      "Ġattic": 3287,
      "Ġmuffin": 3288,
      "Ġwhispered": 3289,
      "ject": 3290,
      "ĠU": 3291,
      "urous": 3292,
      "Ġcarp": 3293,
      "ions": 3294,
      "Ġcube": 3295,
      "Ġcheap": 3296,
      "Ġdeaf": 3297,
      "Ġadventurous": 3298,
      "Ġdelight": 3299,
      "Ġcompet": 3300,
      "Ġmelon": 3301,
      "Ġeras": 3302,
      "Ġrag": 3303,
      "Ġstation": 3304,
      "Ġforward": 3305,
      "Ġboard": 3306,
      "Ġrode": 3307,
      "Ġflame": 3308,
      "Ġusing": 3309,
      "Ġcomb": 3310,
      "Ġwalls": 3311,
      "Ġcarpet": 3312,
      "Billy": 3313,
      "Ġtunn": 3314,
      "Ġfountain": 3315,
      "Ġlit": 3316,
      "anger": 3317,
      "Ġthread": 3318,
      "Ġuncom": 3319,
      "Ġpale": 3320,
      "Ġcrack": 3321,
      "Ġcreate": 3322,
      "Ġfilthy": 3323,
      "Ġunlock": 3324,
      "Ġencou": 3325,
      "Ġtunnel": 3326,
      "Ġuncomfortable": 3327,
      "zed": 3328,
      "Ġsil": 3329,
      "inary": 3330,
      "Their": 3331,
      "Ġlocked": 3332,
      "Ġscreen": 3333,
      "opard": 3334,
      "essie": 3335,
      "ext": 3336,
      "Ġrice": 3337,
      "Ġbounced": 3338,
      "Ġlively": 3339,
      "Ġdesk": 3340,
      "Ġfearful": 3341,
      "Ġprize": 3342,
      "pack": 3343,
      "rn": 3344,
      "ube": 3345,
      "web": 3346,
      "real": 3347,
      "Ġcob": 3348,
      "Ġpow": 3349,
      "Ġstamp": 3350,
      "Ġhappiness": 3351,
      "Ġnovel": 3352,
      "Ġfluffy": 3353,
      "Ġfireman": 3354,
      "Ġcereal": 3355,
      "Ġmailbox": 3356,
      "Ġdesign": 3357,
      "Ġdisappo": 3358,
      "Ġradio": 3359,
      "Ġpenguin": 3360,
      "Ġgarage": 3361,
      "Ġangel": 3362,
      "Ġmug": 3363,
      "Ġsauce": 3364,
      "Ġloop": 3365,
      "Ġways": 3366,
      "reek": 3367,
      "Ġpainting": 3368,
      "Sarah": 3369,
      "Ġspring": 3370,
      "Ġvegetables": 3371,
      "Ġcobweb": 3372,
      "Mama": 3373,
      "Ġcreek": 3374,
      "Ġpump": 3375,
      "Ġscatter": 3376,
      "Ġstudy": 3377,
      "Ġquestions": 3378,
      "Ġfeathers": 3379,
      "Ġtorn": 3380,
      "Ġhomes": 3381,
      "Ġfather": 3382,
      "Ġhelic": 3383,
      "Ġspun": 3384,
      "opter": 3385,
      "Ġnod": 3386,
      "Ġpoem": 3387,
      "play": 3388,
      "Ġcooler": 3389,
      "Ġhelicopter": 3390,
      "Give": 3391,
      "Ġsle": 3392,
      "Ġbump": 3393,
      "ither": 3394,
      "Ġweep": 3395,
      "Ġlicked": 3396,
      "seum": 3397,
      "Ġmuseum": 3398,
      "Ġfloat": 3399,
      "ĠToday": 3400,
      "Ġhumble": 3401,
      "Ġcompetit": 3402,
      ",âĢĿ": 3403,
      "case": 3404,
      "Ġhedge": 3405,
      "Ġinse": 3406,
      "uring": 3407,
      "Ġsleeping": 3408,
      "Ġgifted": 3409,
      "umbled": 3410,
      "Ġgraceful": 3411,
      "Ġdisappointed": 3412,
      "Ġpipe": 3413,
      "Ġknife": 3414,
      "Ġalert": 3415,
      "Ġsaying": 3416,
      "Ġuncle": 3417,
      "ĠKiki": 3418,
      "Ġdisplay": 3419,
      "Ġcounted": 3420,
      "Ġinvited": 3421,
      "Ġspeak": 3422,
      "Ġcelebrate": 3423,
      "Ġbicycle": 3424,
      "xy": 3425,
      "Ġcone": 3426,
      "uth": 3427,
      "Ġbees": 3428,
      "Ġeventually": 3429,
      "Ġshield": 3430,
      "There": 3431,
      "Ġorder": 3432,
      "aky": 3433,
      "Ġdecorate": 3434,
      "Ġflashlight": 3435,
      "Ġeraser": 3436,
      "Go": 3437,
      "Ġcase": 3438,
      "Ġpor": 3439,
      "Ġshape": 3440,
      "Ġjung": 3441,
      "rage": 3442,
      "Ġleopard": 3443,
      "Ġmule": 3444,
      "Ġtears": 3445,
      "Ġoffice": 3446,
      "ĠRob": 3447,
      "Ġsandbox": 3448,
      "assion": 3449,
      "Ġenth": 3450,
      "Ġharmless": 3451,
      "Ġdetermined": 3452,
      "Ġinsect": 3453,
      "ckey": 3454,
      "per": 3455,
      "Ġwool": 3456,
      "Ġfu": 3457,
      "Ġones": 3458,
      "Ġseal": 3459,
      "Ġspear": 3460,
      "Ġcoins": 3461,
      "Ġhockey": 3462,
      "Ġuniver": 3463,
      "Ġrubbed": 3464,
      "Ġtrains": 3465,
      "Ġacce": 3466,
      "Ġsteak": 3467,
      "Ġsmoke": 3468,
      "Ġpoured": 3469,
      "Ġjungle": 3470,
      "cut": 3471,
      "was": 3472,
      "Ġaer": 3473,
      "Ġpine": 3474,
      "Ġsailed": 3475,
      "Ġshiver": 3476,
      "Ġgolf": 3477,
      "opl": 3478,
      "asses": 3479,
      "usia": 3480,
      "Ġdecide": 3481,
      "berries": 3482,
      "Ġquit": 3483,
      "ĠOK": 3484,
      "Ġpolish": 3485,
      "Ġcomput": 3486,
      "Ġcompassion": 3487,
      "Ġwishes": 3488,
      "Ġdishwas": 3489,
      "Ġordinary": 3490,
      "Ġslept": 3491,
      "Ġenthusia": 3492,
      "Ġaeropl": 3493,
      "Ġdishwasher": 3494,
      "Jane": 3495,
      "Ġcam": 3496,
      "Ġmelt": 3497,
      "ision": 3498,
      "Ġgear": 3499,
      "Ġmeal": 3500,
      "Ġmole": 3501,
      "Ġbehave": 3502,
      "Ġfalls": 3503,
      "Ġcrayon": 3504,
      "Ġavocado": 3505,
      "Ġtube": 3506,
      "Ġhours": 3507,
      "Ġgum": 3508,
      "Ġrid": 3509,
      "Ġstage": 3510,
      "Ġrep": 3511,
      "Ġmakeup": 3512,
      "Ġlearning": 3513,
      "Ġvi": 3514,
      "Ġneedle": 3515,
      "Ġdreams": 3516,
      "Ġminer": 3517,
      "Ġraven": 3518,
      "Ġbandage": 3519,
      "umbers": 3520,
      "Ġslides": 3521,
      "Ġbull": 3522,
      "Ġpurse": 3523,
      "isted": 3524,
      "Ġherb": 3525,
      "Ġload": 3526,
      "Ġmanag": 3527,
      "Ġexcite": 3528,
      "Ġcompl": 3529,
      "Ġzip": 3530,
      "Ġresc": 3531,
      "Ġhappening": 3532,
      "Ġears": 3533,
      "Ġcrawled": 3534,
      "Ġpigeon": 3535,
      "Fluffy": 3536,
      "Ġlying": 3537,
      "Ġforth": 3538,
      "Ġthemselves": 3539,
      "Ġboxes": 3540,
      "Ġenv": 3541,
      "Ġdeliver": 3542,
      "Ġjudge": 3543,
      "Ġcarrots": 3544,
      "Ġsoldier": 3545,
      "Ġwiped": 3546,
      "par": 3547,
      "Ġtummy": 3548,
      "Ġsend": 3549,
      "Ġsink": 3550,
      "ĠToby": 3551,
      "Ġmaze": 3552,
      "ony": 3553,
      "Ġknot": 3554,
      "ctory": 3555,
      "weet": 3556,
      "Ġteleph": 3557,
      "Ġdust": 3558,
      "Ġnumbers": 3559,
      "Ġreward": 3560,
      "acket": 3561,
      "Ġboys": 3562,
      "ief": 3563,
      "Ġchoose": 3564,
      "Ġpeach": 3565,
      "ĠAndy": 3566,
      "Ġnicely": 3567,
      "Ġtruth": 3568,
      "Ġstranger": 3569,
      "Ġparade": 3570,
      "ĠPipp": 3571,
      "rework": 3572,
      "Ġcomplet": 3573,
      "Ġpastry": 3574,
      "Ġporch": 3575,
      "Ġcamera": 3576,
      "Ġtelephone": 3577,
      "bul": 3578,
      "corn": 3579,
      "vator": 3580,
      "Ġed": 3581,
      "ital": 3582,
      "arian": 3583,
      "Ġplayground": 3584,
      "Ġspell": 3585,
      "Ġfactory": 3586,
      "iew": 3587,
      "Ġswitch": 3588,
      "Ġhosp": 3589,
      "Ġambul": 3590,
      "Ġstrugg": 3591,
      "Ġhotel": 3592,
      "Ġelevator": 3593,
      "Ġlibrary": 3594,
      "Ġcomputer": 3595,
      "Ġhospital": 3596,
      "Ġambulance": 3597,
      "lph": 3598,
      "Ġweek": 3599,
      "Ġdolph": 3600,
      "Ġhelpless": 3601,
      "Ġjacket": 3602,
      "ulu": 3603,
      "Ġspend": 3604,
      "Ġview": 3605,
      "Ġskin": 3606,
      "Ġbookcase": 3607,
      "Ġcolour": 3608,
      "Ġstronger": 3609,
      "Bobo": 3610,
      "ĠZoom": 3611,
      "Ġpopcorn": 3612,
      "Ġcompassionate": 3613,
      "Mummy": 3614,
      "Ġot": 3615,
      "ense": 3616,
      "ulb": 3617,
      "Ġstared": 3618,
      "Ġkindness": 3619,
      "Ġimpro": 3620,
      "Ġsplit": 3621,
      "Ġmixer": 3622,
      "Ġattract": 3623,
      "Ġpackage": 3624,
      "Ġotter": 3625,
      "Ġattractive": 3626,
      "llip": 3627,
      "Ġstaff": 3628,
      "Ġscale": 3629,
      "Ġalarm": 3630,
      "Ġtear": 3631,
      "Ġstove": 3632,
      "Ġcounting": 3633,
      "Ġaeroplane": 3634,
      "llipop": 3635,
      "ffe": 3636,
      "ti": 3637,
      "het": 3638,
      "Ġthief": 3639,
      "Ġoak": 3640,
      "ĠBet": 3641,
      "ulif": 3642,
      "Ġspill": 3643,
      "Ġfest": 3644,
      "Ġpoked": 3645,
      "Ġtrack": 3646,
      "Ġgiving": 3647,
      "Ġcherries": 3648,
      "ffee": 3649,
      "Ġple": 3650,
      "ĠSn": 3651,
      "Ġsheet": 3652,
      "Ġlollipop": 3653,
      "Ġjunk": 3654,
      "aghet": 3655,
      "Ġpear": 3656,
      "Ġfirework": 3657,
      "Ġador": 3658,
      "Ġlaughs": 3659,
      "Joe": 3660,
      "Ġcaulif": 3661,
      "Ġjournal": 3662,
      "Ġtroubled": 3663,
      "Ġglowing": 3664,
      "Ġenvious": 3665,
      "aghetti": 3666,
      "come": 3667,
      "Ġcop": 3668,
      "Ġcable": 3669,
      "stic": 3670,
      "Ġonce": 3671,
      "Ġnotice": 3672,
      "Ġsepar": 3673,
      "Ġspaghetti": 3674,
      "ĠDan": 3675,
      "Ġpoke": 3676,
      "Ġpebble": 3677,
      "Ġtravel": 3678,
      "Ġpatch": 3679,
      "Ġgathered": 3680,
      "Ġpowder": 3681,
      "Ġadorable": 3682,
      "ccol": 3683,
      "ines": 3684,
      "ready": 3685,
      "Ġkay": 3686,
      "Ġcane": 3687,
      "Ġsweater": 3688,
      "Ġcrane": 3689,
      "Ġbrothers": 3690,
      "Ġblackboard": 3691,
      "Ġguard": 3692,
      "Ġjewelry": 3693,
      "Ġoats": 3694,
      "Jimmy": 3695,
      "Ġenthusiastic": 3696,
      "Ġviol": 3697,
      "Ġfestiv": 3698,
      "Ġcauliflower": 3699,
      "ccoli": 3700,
      "Jill": 3701,
      "ye": 3702,
      "Ġcamp": 3703,
      "Ġcush": 3704,
      "ĠSh": 3705,
      "Ġyach": 3706,
      "Ġalready": 3707,
      "Ġcoffee": 3708,
      "asing": 3709,
      "Ġholes": 3710,
      "Ġtrunk": 3711,
      "Ġglove": 3712,
      "Ġbushes": 3713,
      "Ġarg": 3714,
      "Ġlights": 3715,
      "Ġmissile": 3716,
      "Ġbikes": 3717,
      "lcan": 3718,
      "ĠEmily": 3719,
      "Ġdisappeared": 3720,
      "Ġcricket": 3721,
      "aving": 3722,
      "hic": 3723,
      "head": 3724,
      "Ġhook": 3725,
      "Ġmask": 3726,
      "utes": 3727,
      "Ġstairs": 3728,
      "Ġstumbled": 3729,
      "Ġvide": 3730,
      "Ġsniff": 3731,
      "Ġfrogs": 3732,
      "Ġmeans": 3733,
      "Ġvolcan": 3734,
      "Ġvehic": 3735,
      "Ġbathrobe": 3736,
      "Ġmint": 3737,
      "Ġprep": 3738,
      "Ġmanaged": 3739,
      "Ġviolin": 3740,
      "Ġfestival": 3741,
      "Ġyacht": 3742,
      "Al": 3743,
      "gen": 3744,
      "ney": 3745,
      "Ġow": 3746,
      "Ġcards": 3747,
      "imney": 3748,
      "ĠMum": 3749,
      "Ġtem": 3750,
      "Ġenvel": 3751,
      "Ġbroccoli": 3752,
      "Ġvend": 3753,
      "Ġdistant": 3754,
      "Ġpractice": 3755,
      "Ġpracticed": 3756,
      "Ġedge": 3757,
      "dom": 3758,
      "work": 3759,
      "Ġten": 3760,
      "Ġbulb": 3761,
      "Ġbeet": 3762,
      "Ġyet": 3763,
      "Ġpole": 3764,
      "Ġsort": 3765,
      "ĠEverywhere": 3766,
      "Ġswamp": 3767,
      "Ġvalu": 3768,
      "Ġhurry": 3769,
      "Ġvolcano": 3770,
      "lies": 3771,
      "Ġsize": 3772,
      "Ġfork": 3773,
      "ĠJake": 3774,
      "Ġknows": 3775,
      "Ġbarrel": 3776,
      "Ġminutes": 3777,
      "Ġhanging": 3778,
      "Ġcompetitive": 3779,
      "Ġsight": 3780,
      "Ġbiggest": 3781,
      "Ġcleaning": 3782,
      "Ġhaircut": 3783,
      "Ġgrowing": 3784,
      "dest": 3785,
      "Ġobject": 3786,
      "Ġjellyfish": 3787,
      "Ġimagine": 3788,
      "Ġharsh": 3789,
      "Ġdolphin": 3790,
      "time": 3791,
      "Ġwife": 3792,
      "Ġbill": 3793,
      "Ġgir": 3794,
      "Ġshut": 3795,
      "Ġagainst": 3796,
      "ĠKim": 3797,
      "Ġtrash": 3798,
      "Ġreading": 3799,
      "Ġbookshe": 3800,
      "Ġmedal": 3801,
      "Ġticket": 3802,
      "Ġstrawberry": 3803,
      "Ġkayak": 3804,
      "Ġvendor": 3805,
      "Gra": 3806,
      "under": 3807,
      "Ġok": 3808,
      "Ġrot": 3809,
      "ugged": 3810,
      "tern": 3811,
      "?\".": 3812,
      "Ġscrew": 3813,
      "Ġgrowl": 3814,
      "Ġribb": 3815,
      "Ġmatt": 3816,
      "Ġbuttons": 3817,
      "Ġignorant": 3818,
      "Ġpumpkin": 3819,
      "Ġhipp": 3820,
      "Ġpit": 3821,
      "Ġmild": 3822,
      "Ġshort": 3823,
      "ushed": 3824,
      "Ġchimney": 3825,
      "Ġtrade": 3826,
      "Ġgrandpa": 3827,
      "ailable": 3828,
      "Ġopens": 3829,
      "Ġsteps": 3830,
      "Ġpinch": 3831,
      "Ġbookshelf": 3832,
      "inoc": 3833,
      "Ġmitten": 3834,
      "ceed": 3835,
      "Ġweigh": 3836,
      "Ġmeat": 3837,
      "Ġshowing": 3838,
      "Ġcooking": 3839,
      "Ġpainter": 3840,
      "Ġrestaur": 3841,
      "Ġdrawings": 3842,
      "Ġceiling": 3843,
      "Ġpassport": 3844,
      "Ġlawy": 3845,
      "Ġbillboard": 3846,
      "Ġhippo": 3847,
      "Ġrestaurant": 3848,
      "Is": 3849,
      "Well": 3850,
      "Ġtax": 3851,
      "Ġlumber": 3852,
      "Ġcoo": 3853,
      "ĠLulu": 3854,
      "Ġrever": 3855,
      "Ġmem": 3856,
      "Ġnewsp": 3857,
      "Ġlouder": 3858,
      "Ġpointing": 3859,
      "ĠGrandpa": 3860,
      "Ġsparkly": 3861,
      "Ġsucceed": 3862,
      "Ġcircles": 3863,
      "Ġpirate": 3864,
      "Ġcomplete": 3865,
      "Ġtaxi": 3866,
      "low": 3867,
      "squ": 3868,
      "Ġbase": 3869,
      "Ġled": 3870,
      "Ġthunder": 3871,
      "Ġitch": 3872,
      "Ġitself": 3873,
      "Ġraz": 3874,
      "illa": 3875,
      "Ġpost": 3876,
      "Ġmodest": 3877,
      "Ġhandle": 3878,
      "Ġcalling": 3879,
      "ctop": 3880,
      "ĠPoppy": 3881,
      "body": 3882,
      "Ġsuper": 3883,
      "Ġcrawl": 3884,
      "Ġboots": 3885,
      "Ġbeetle": 3886,
      "vision": 3887,
      "ito": 3888,
      "Ġoctop": 3889,
      "ĠLook": 3890,
      "elery": 3891,
      "icer": 3892,
      "Ġscoot": 3893,
      "Ġlaser": 3894,
      "Ġblin": 3895,
      "Ġmosqu": 3896,
      "Ġtowers": 3897,
      "Ġmagaz": 3898,
      "ĠRex": 3899,
      "Ġexplain": 3900,
      "Ġstops": 3901,
      "Ġbelt": 3902,
      "Ġjuicy": 3903,
      "Ġraise": 3904,
      "Ġshrink": 3905,
      "Ġthinking": 3906,
      "Ġrhinoc": 3907,
      "Ġmattress": 3908,
      "Ġlawyer": 3909,
      "Ġmosquito": 3910,
      "Ġrhinocer": 3911,
      "Daisy": 3912,
      "cing": 3913,
      "nam": 3914,
      "Ġson": 3915,
      "Ġcelery": 3916,
      "Ġgasp": 3917,
      "lend": 3918,
      "Ġjug": 3919,
      "Ġroot": 3920,
      "Ġleash": 3921,
      "Ġfastest": 3922,
      "Ġenjoying": 3923,
      "Ġcups": 3924,
      "Ġvest": 3925,
      "Ġpattern": 3926,
      "Ġavailable": 3927,
      "Ġtelevision": 3928,
      "Ġfuel": 3929,
      "Ġvaluable": 3930,
      "Ġoctopus": 3931,
      "Ġrhinoceros": 3932,
      "Ġtask": 3933,
      "Ġtoile": 3934,
      "Ġpal": 3935,
      "omed": 3936,
      "Ġthose": 3937,
      "ured": 3938,
      "Ġknock": 3939,
      "ĠCo": 3940,
      "Ġmagn": 3941,
      "Ġdreamed": 3942,
      "Ġbathe": 3943,
      "Ġfolder": 3944,
      "ĠSpike": 3945,
      "Ġsneeze": 3946,
      "Ġcabinet": 3947,
      "Ġexcitement": 3948,
      "Ġpalace": 3949,
      "See": 3950,
      "eer": 3951,
      "loo": 3952,
      "Ġig": 3953,
      "Ġfile": 3954,
      "iest": 3955,
      "ĠFo": 3956,
      "Ġloudly": 3957,
      "Ġquiz": 3958,
      "Ġcows": 3959,
      "Ġlabel": 3960,
      "Ġcomplain": 3961,
      "Ġseparate": 3962,
      "Ġtemp": 3963,
      "Ġnewspaper": 3964,
      "Ġtoilet": 3965,
      "Ġigloo": 3966,
      "ten": 3967,
      "ination": 3968,
      "Ġmen": 3969,
      "Ġsaus": 3970,
      "ĠSunny": 3971,
      "ĠBessie": 3972,
      "Ġclub": 3973,
      "Ġholds": 3974,
      "Ġspoke": 3975,
      "Ġserve": 3976,
      "Ġlawn": 3977,
      "Ġbarking": 3978,
      "Ġsurf": 3979,
      "ĠPeople": 3980,
      "Ġprune": 3981,
      "Ġrazor": 3982,
      "Mr": 3983,
      "ait": 3984,
      "Ġhall": 3985,
      "Ġgym": 3986,
      "ately": 3987,
      "ete": 3988,
      "Ġplayer": 3989,
      "Ġsoar": 3990,
      "ĠAre": 3991,
      "Ġreind": 3992,
      "Ġknight": 3993,
      "Ġsunset": 3994,
      "Ġornam": 3995,
      "essert": 3996,
      "Ġtwirl": 3997,
      "Ġsne": 3998,
      "Ġchess": 3999,
      "Ġeye": 4000,
      "Ġrolling": 4001,
      "Ġpretending": 4002,
      "Ġearly": 4003,
      "Ġcarrying": 4004,
      "Ġbananas": 4005,
      "Ġstretched": 4006,
      "Ġimprove": 4007,
      "Ġcushion": 4008,
      "Ġmagazine": 4009,
      "Ġornament": 4010,
      "ron": 4011,
      "ĠTweet": 4012,
      "Ġdessert": 4013,
      "Ġgor": 4014,
      "Ġshaking": 4015,
      "ĠFr": 4016,
      "Ġsung": 4017,
      "Ġchance": 4018,
      "Ġskipped": 4019,
      "anda": 4020,
      "Ġgrown": 4021,
      "ĠOlive": 4022,
      "Ġattach": 4023,
      "Ġincl": 4024,
      "Ġflea": 4025,
      "Ġsafely": 4026,
      "Ġreindeer": 4027,
      "'d": 4028,
      "Re": 4029,
      "cense": 4030,
      "ĠâĢ": 4031,
      "Ġlend": 4032,
      "Ġgro": 4033,
      "Ġweap": 4034,
      "Ġlicense": 4035,
      "elcome": 4036,
      "Ġcoco": 4037,
      "Ġblouse": 4038,
      "Ġpeek": 4039,
      "Ġmarry": 4040,
      "Ġsuggest": 4041,
      "Ġorganize": 4042,
      "Ġcocoa": 4043,
      "Bye": 4044,
      "Ġfive": 4045,
      "Ġcity": 4046,
      "Ġur": 4047,
      "Ġeither": 4048,
      "htub": 4049,
      "Ġrece": 4050,
      "Ġrepe": 4051,
      "Ġmeadow": 4052,
      "Ġranch": 4053,
      "Ġskip": 4054,
      "ĠGive": 4055,
      "Ġtripped": 4056,
      "Ġshovel": 4057,
      "Ġbathtub": 4058,
      "Ġobser": 4059,
      "Ġsupport": 4060,
      "Ġtools": 4061,
      "Ġgiggled": 4062,
      "Ġsqueeze": 4063,
      "Ġgasped": 4064,
      "..": 4065,
      "lasses": 4066,
      "vet": 4067,
      "ĠSus": 4068,
      "Ġframe": 4069,
      "Ġpee": 4070,
      "Ġtaller": 4071,
      "ĠOw": 4072,
      "peedy": 4073,
      "Ġresist": 4074,
      "ophie": 4075,
      "Ġvideo": 4076,
      "Ġenvelope": 4077,
      "Ġsunglasses": 4078,
      "Ow": 4079,
      "Ġdive": 4080,
      "Ġcurt": 4081,
      "ilot": 4082,
      "stri": 4083,
      "Ġwhenever": 4084,
      "Ġclimbing": 4085,
      "Ġbubble": 4086,
      "Ġrealised": 4087,
      "Ġshocked": 4088,
      "Ġtightly": 4089,
      "Ġbasketball": 4090,
      "Ġbelongs": 4091,
      "Ġcooked": 4092,
      "Ġgorilla": 4093,
      "Ġwipe": 4094,
      "Ġmath": 4095,
      "ention": 4096,
      "Ġfauc": 4097,
      "Ġflour": 4098,
      "Ġanywhere": 4099,
      "Ġunif": 4100,
      "rosc": 4101,
      "ĠCarl": 4102,
      "Ġmessage": 4103,
      "Ġperm": 4104,
      "Ġmarched": 4105,
      "Ġradish": 4106,
      "Ġrubber": 4107,
      "Ġcherry": 4108,
      "Ġcostume": 4109,
      "Ġcurtain": 4110,
      "Ġfaucet": 4111,
      "roscope": 4112,
      "Ouch": 4113,
      "Ġaut": 4114,
      "Ġahead": 4115,
      "Ġnation": 4116,
      "ĠHere": 4117,
      "Ġostri": 4118,
      "Ġonion": 4119,
      "ĠBoun": 4120,
      "urb": 4121,
      "Ġleaving": 4122,
      "Ġanyway": 4123,
      "Ġpopped": 4124,
      "Ġtelling": 4125,
      "Ġcalend": 4126,
      "Ġphoto": 4127,
      "ĠSpark": 4128,
      "Ġcrib": 4129,
      "Ġmagnet": 4130,
      "Ġtemple": 4131,
      "Ġuniform": 4132,
      "Ġbin": 4133,
      "Ġhive": 4134,
      "Ġnurse": 4135,
      "ric": 4136,
      "Ġbeep": 4137,
      "urch": 4138,
      "urkey": 4139,
      "Ġagree": 4140,
      "Ġchain": 4141,
      "Ġgrapes": 4142,
      "Ġsteam": 4143,
      "Ġwheels": 4144,
      "Ġprov": 4145,
      "Ġrescue": 4146,
      "Qu": 4147,
      "Ġturkey": 4148,
      "Ġsym": 4149,
      "Ġcell": 4150,
      "Ġins": 4151,
      "!\".": 4152,
      "Ġwhip": 4153,
      "Ġrefused": 4154,
      "Ġspade": 4155,
      "Ġmeas": 4156,
      "Ġtrail": 4157,
      "bol": 4158,
      "Ġdriving": 4159,
      "Ġletters": 4160,
      "Ġdisturb": 4161,
      "Ġpressed": 4162,
      "Ġostrich": 4163,
      "Wait": 4164,
      "fast": 4165,
      "Ġmall": 4166,
      "Ġabove": 4167,
      "ourite": 4168,
      "Ġgrand": 4169,
      "Ġcheck": 4170,
      "ĠRu": 4171,
      "Ġsounded": 4172,
      "Ġfavourite": 4173,
      "Ġbreakfast": 4174,
      "Ġstirred": 4175,
      "Did": 4176,
      "fa": 4177,
      "lter": 4178,
      "Ġax": 4179,
      "Ġoy": 4180,
      "Ġshelter": 4181,
      "Ġkne": 4182,
      "Ġlaund": 4183,
      "asis": 4184,
      "Ġchurch": 4185,
      "Ġtray": 4186,
      "Ġswinging": 4187,
      "Ġsweetie": 4188,
      "ophone": 4189,
      "Ġdiary": 4190,
      "Ġbattery": 4191,
      "Ġpunish": 4192,
      "Ġcalendar": 4193,
      "Ġlaundry": 4194,
      "arry": 4195,
      "ature": 4196,
      "Ġoil": 4197,
      "Ġoasis": 4198,
      "Ġnames": 4199,
      "ĠWhere": 4200,
      "Ġslip": 4201,
      "affe": 4202,
      "Ġearth": 4203,
      "Ġspoil": 4204,
      "Ġjokes": 4205,
      "Ġhuman": 4206,
      "Ġcandle": 4207,
      "ĠPippin": 4208,
      "ĠSnow": 4209,
      "Ġgiraffe": 4210,
      "Ġblinked": 4211,
      "Ġsymbol": 4212,
      "Ġaxe": 4213,
      "Ch": 4214,
      "lid": 4215,
      "Ġtut": 4216,
      "Ġtip": 4217,
      "Ġbri": 4218,
      "Ġpist": 4219,
      "Ġmay": 4220,
      "iches": 4221,
      "Ġjumps": 4222,
      "ogn": 4223,
      "Ġclaw": 4224,
      "Ġdisag": 4225,
      "ĠZip": 4226,
      "Ġsandwiches": 4227,
      "Ġmicr": 4228,
      "Ġargue": 4229,
      "Ġscooter": 4230,
      "Ġgroc": 4231,
      "Ġpistol": 4232,
      "Ġsent": 4233,
      "Ġwine": 4234,
      "Ġhut": 4235,
      "inarian": 4236,
      "Ġpony": 4237,
      "Ġstable": 4238,
      "ĠLittle": 4239,
      "Ġext": 4240,
      "Ġveter": 4241,
      "ionary": 4242,
      "Ġdoors": 4243,
      "Ġstickers": 4244,
      "Ġdoesn": 4245,
      "Ġpoint": 4246,
      "Ġrecogn": 4247,
      "ĠBirdy": 4248,
      "ictionary": 4249,
      "Ġtutor": 4250,
      "Ġmicrophone": 4251,
      "Ġveterinarian": 4252,
      "mend": 4253,
      "res": 4254,
      "Ġdictionary": 4255,
      "Ġped": 4256,
      "Ġhappier": 4257,
      "ĠBill": 4258,
      "Ġanch": 4259,
      "Ġholid": 4260,
      "Ġexcitedly": 4261,
      "ĠPandy": 4262,
      "ĠRose": 4263,
      "Ġbags": 4264,
      "Ġcrow": 4265,
      "Ġfalling": 4266,
      "Ġtornado": 4267,
      "Ġreverse": 4268,
      "ĠCoco": 4269,
      "Ġextra": 4270,
      "Ġholiday": 4271,
      "aid": 4272,
      "Ġaw": 4273,
      "ĠTeddy": 4274,
      "Ġstom": 4275,
      "keep": 4276,
      "Ġweather": 4277,
      "Ġspike": 4278,
      "Ġunpack": 4279,
      "Ġblueberries": 4280,
      "Ġlistening": 4281,
      "Ġdishes": 4282,
      "Ġpicking": 4283,
      "Ġforgave": 4284,
      "Ġzipp": 4285,
      "aspoon": 4286,
      "Ġanchor": 4287,
      "med": 4288,
      "nger": 4289,
      "Ġtub": 4290,
      "Ġcord": 4291,
      "Ġpilot": 4292,
      "Ġmummy": 4293,
      "Ġmass": 4294,
      "omob": 4295,
      "ommend": 4296,
      "ison": 4297,
      "ĠSpeedy": 4298,
      "Ġink": 4299,
      "Ġlip": 4300,
      "Ġteaspoon": 4301,
      "Ġpacked": 4302,
      "Ġsett": 4303,
      "Ġsalt": 4304,
      "Ġolives": 4305,
      "Ġleaned": 4306,
      "Ġaccidentally": 4307,
      "Ġaccept": 4308,
      "Ġmineral": 4309,
      "ĠBetty": 4310,
      "Ġpleased": 4311,
      "Ġbaseball": 4312,
      "Ġmenu": 4313,
      "Ġautomob": 4314,
      "Ġautomobile": 4315,
      "Em": 4316,
      "Little": 4317,
      "sity": 4318,
      "Ġnature": 4319,
      "Ġsofa": 4320,
      "Ġroared": 4321,
      "Ġswung": 4322,
      "Ġunh": 4323,
      "Ġoffered": 4324,
      "Ġdrain": 4325,
      "Ġdreaming": 4326,
      "Ġbeef": 4327,
      "Ġnapkin": 4328,
      "Ġfreez": 4329,
      "Ġrecommend": 4330,
      "Ġsupply": 4331,
      "Ġfilm": 4332,
      "Ġdiscovered": 4333,
      "Ġsilver": 4334,
      "del": 4335,
      "na": 4336,
      "tory": 4337,
      "vice": 4338,
      "ĠV": 4339,
      "Ġlime": 4340,
      "Ġcudd": 4341,
      "iron": 4342,
      "Ġhistory": 4343,
      "veal": 4344,
      "ummer": 4345,
      "Ġunite": 4346,
      "ĠEllie": 4347,
      "Ġhate": 4348,
      "Ġpulls": 4349,
      "Ġmusician": 4350,
      "Ġraft": 4351,
      "Ġapron": 4352,
      "Ġmicroscope": 4353,
      "Ġfrowned": 4354,
      "Ġoyster": 4355,
      "Ġpap": 4356,
      "Ġlives": 4357,
      "Ġoften": 4358,
      "Ġreveal": 4359,
      "Ġsadly": 4360,
      "Ġmodel": 4361,
      "Ġkinds": 4362,
      "Ġdrawer": 4363,
      "Ġstarts": 4364,
      "Ġmeeting": 4365,
      "Ġmistakes": 4366,
      "Ġregret": 4367,
      "Ġadmired": 4368,
      "Ġrhy": 4369,
      "Ġrepair": 4370,
      "Ġvehicle": 4371,
      "Yuck": 4372,
      "ience": 4373,
      "zag": 4374,
      "Ġfog": 4375,
      "render": 4376,
      "Ġpages": 4377,
      "Ġplates": 4378,
      "Ġjail": 4379,
      "Ġcaring": 4380,
      "Ġrained": 4381,
      "ĠPete": 4382,
      "Ġsquirrels": 4383,
      "Ġpair": 4384,
      "Ġbutterflies": 4385,
      "Ġimagined": 4386,
      "Ġfingers": 4387,
      "Ġclassroom": 4388,
      "Ġpeeked": 4389,
      "aroo": 4390,
      "Ġinf": 4391,
      "Ġbend": 4392,
      "Ġrail": 4393,
      "Ġneat": 4394,
      "Ġallowed": 4395,
      "ĠJazz": 4396,
      "Ġtroph": 4397,
      "Ġgrape": 4398,
      "Ġproudly": 4399,
      "Ġadvice": 4400,
      "aches": 4401,
      "Ġpup": 4402,
      "Ġmustache": 4403,
      "angaroo": 4404,
      "Ġchose": 4405,
      "ola": 4406,
      "Ġproblems": 4407,
      "Ġwarned": 4408,
      "Ġsearching": 4409,
      "ĠAlice": 4410,
      "Ġreminded": 4411,
      "Ġunhappy": 4412,
      "nesday": 4413,
      "Ġsuff": 4414,
      "ednesday": 4415,
      "Ġbet": 4416,
      "Ġhunt": 4417,
      "Ġsaving": 4418,
      "ĠSophie": 4419,
      "igzag": 4420,
      "Ġcliff": 4421,
      "ifi": 4422,
      "ason": 4423,
      "Ġskirt": 4424,
      "thm": 4425,
      "Ġreplace": 4426,
      "Ġcastles": 4427,
      "Ġpoints": 4428,
      "Ġdistance": 4429,
      "Ġspilled": 4430,
      "Ġribbon": 4431,
      "keeper": 4432,
      "Ġfreezer": 4433,
      "iture": 4434,
      "Ġkangaroo": 4435,
      "urniture": 4436,
      "Ġfixing": 4437,
      "Ġrules": 4438,
      "Ġwindows": 4439,
      "Ġwinter": 4440,
      "Ġmissing": 4441,
      "Ġhappens": 4442,
      "Ġshakes": 4443,
      "Ġinvite": 4444,
      "Ġchickens": 4445,
      "Ġexamine": 4446,
      "Ġrhythm": 4447,
      "Buddy": 4448,
      "Yay": 4449,
      "Ġiron": 4450,
      "Ġfurniture": 4451,
      "Ġport": 4452,
      "imed": 4453,
      "Ġleather": 4454,
      "ĠWednesday": 4455,
      "Ġintro": 4456,
      "Ġended": 4457,
      "Ġremove": 4458,
      "Ġbreat": 4459,
      "aced": 4460,
      "ations": 4461,
      "apping": 4462,
      "Ġadmire": 4463,
      "Ġweapon": 4464,
      "Ġclaws": 4465,
      "Ġintrod": 4466,
      "riger": 4467,
      "ĠY": 4468,
      "Ġheat": 4469,
      "hero": 4470,
      "ected": 4471,
      "Ġfinds": 4472,
      "Ġflood": 4473,
      "Ġhanded": 4474,
      "Ġtease": 4475,
      "ĠRed": 4476,
      "Ġbrightly": 4477,
      "Ġstud": 4478,
      "Ġincre": 4479,
      "Ġgrabs": 4480,
      "Ġcrossed": 4481,
      "Ġrefriger": 4482,
      "Ġsuperhero": 4483,
      "Ġrefrigerator": 4484,
      "Next": 4485,
      "aked": 4486,
      "drobe": 4487,
      "wards": 4488,
      "Ġsummer": 4489,
      "Ġpanda": 4490,
      "leton": 4491,
      "keleton": 4492,
      "Ġshone": 4493,
      "Ġoper": 4494,
      "ĠEnd": 4495,
      "Ġsnap": 4496,
      "Ġsticky": 4497,
      "Ġprevent": 4498,
      "Ġwardrobe": 4499,
      "Ġsurrender": 4500,
      "achel": 4501,
      "Ġrepeat": 4502,
      "Ġpapers": 4503,
      "Ġtrophy": 4504,
      "Ġsudden": 4505,
      "Ġsigh": 4506,
      "Ġtoe": 4507,
      "Ġrush": 4508,
      "stairs": 4509,
      "Ġslipp": 4510,
      "astic": 4511,
      "place": 4512,
      "Ġener": 4513,
      "Ġcomfort": 4514,
      "Ġbury": 4515,
      "ĠPeter": 4516,
      "Ġhills": 4517,
      "Ġthrowing": 4518,
      "Ġuniversity": 4519,
      "Ġcolourful": 4520,
      "Ġgrocery": 4521,
      "Ġinfant": 4522,
      "ude": 4523,
      "Ġsocks": 4524,
      "ecause": 4525,
      "Ġchasing": 4526,
      "Ġsticker": 4527,
      "Ġpushing": 4528,
      "Ġpushes": 4529,
      "Ġhung": 4530,
      "Ġplanes": 4531,
      "Ġbreaks": 4532,
      "ĠJohnny": 4533,
      "Ġshrugged": 4534,
      "Ġdelighted": 4535,
      "Ġbumped": 4536,
      "Ġsuggested": 4537,
      "ĠSusie": 4538,
      "Mark": 4539,
      "cast": 4540,
      "ium": 4541,
      "Ġtherm": 4542,
      "Ġfought": 4543,
      "inking": 4544,
      "Ġcur": 4545,
      "lex": 4546,
      "ĠLee": 4547,
      "Ġhelper": 4548,
      "ometer": 4549,
      "Ġbears": 4550,
      "Ġsoftly": 4551,
      "Ġsandcast": 4552,
      "ĠMrs": 4553,
      "Ġsmells": 4554,
      "Ġmatches": 4555,
      "Ġperfume": 4556,
      "Ġchairs": 4557,
      "Ġfootball": 4558,
      "Ġstrip": 4559,
      "Ġthermometer": 4560,
      "Lisa": 4561,
      "te": 4562,
      "Ġbent": 4563,
      "Ġfre": 4564,
      "Ġgoal": 4565,
      "Ġopera": 4566,
      "Ġfeelings": 4567,
      "Ġevening": 4568,
      "Ġhoping": 4569,
      "Ġfireplace": 4570,
      "Ġshouts": 4571,
      "Ġpanic": 4572,
      "Ġignore": 4573,
      "Ġsqueezed": 4574,
      "Ġyawned": 4575,
      "xygen": 4576,
      "Ġriding": 4577,
      "Alice": 4578,
      "Ġmassage": 4579,
      "Ġoperation": 4580,
      "Ġwre": 4581,
      "Ġhanger": 4582,
      "ĠBee": 4583,
      "ĠMike": 4584,
      "Ġputting": 4585,
      "Ġletting": 4586,
      "Ġairport": 4587,
      "Ġsailor": 4588,
      "Ġtrusted": 4589,
      "Ġsprayed": 4590,
      "Ġwaffles": 4591,
      "ĠâĢĵ": 4592,
      "Ġzipper": 4593,
      "Ġtheater": 4594,
      "Ġberry": 4595,
      "Ġcoal": 4596,
      "Ġsomewhere": 4597,
      "Ġsurprises": 4598,
      "Ġdear": 4599,
      "Ġpuddles": 4600,
      "Ġpigs": 4601,
      "Ġhorses": 4602,
      "Ġcardboard": 4603,
      "Ġbarks": 4604,
      "Ġmystery": 4605,
      "Ġsausage": 4606,
      "ĠFrog": 4607,
      "aul": 4608,
      "mble": 4609,
      "night": 4610,
      "ince": 4611,
      "enry": 4612,
      "amber": 4613,
      "Ġrake": 4614,
      "Ġtremble": 4615,
      "Your": 4616,
      "Ġcopper": 4617,
      "Ġflapped": 4618,
      "ucture": 4619,
      "Ġsunr": 4620,
      "Ġmarble": 4621,
      "Ġexplored": 4622,
      "Mary": 4623,
      "Ġdem": 4624,
      "Ġwaste": 4625,
      "alley": 4626,
      "Ġknob": 4627,
      "ĠFifi": 4628,
      "Ġvalley": 4629,
      "Ġrooms": 4630,
      "Ġstructure": 4631,
      "Ġpaid": 4632,
      "Ġgiven": 4633,
      "Ġinsisted": 4634,
      "Ġsuffer": 4635,
      "Ġenergy": 4636,
      "Ġsunrise": 4637,
      "ah": 4638,
      "Ġskeleton": 4639,
      "Ġwigg": 4640,
      "Ġmama": 4641,
      "Ġgrill": 4642,
      "Ġplastic": 4643,
      "ĠLizzy": 4644,
      "ĠFl": 4645,
      "Ġchamber": 4646,
      "Ġlotion": 4647,
      "Ġeaten": 4648,
      "Ġolder": 4649,
      "Ġsnugg": 4650,
      "Ġsteel": 4651,
      "Ġimpressed": 4652,
      "Ġprovide": 4653,
      "Ġfresh": 4654,
      "Ġdemand": 4655,
      "Ġluck": 4656,
      "Ġyield": 4657,
      "Ġrushed": 4658,
      "ĠMar": 4659,
      "Ġbuzz": 4660,
      "Ġcalls": 4661,
      "ement": 4662,
      "Ġrabbits": 4663,
      "ĠDolly": 4664,
      "Ġfollowing": 4665,
      "Ġart": 4666,
      "Ġmailman": 4667,
      "Ġinvit": 4668,
      "Ġwreck": 4669,
      "Will": 4670,
      "men": 4671,
      "uesday": 4672,
      "Ġlang": 4673,
      "ating": 4674,
      "Ġinst": 4675,
      "ĠHel": 4676,
      "Ġstad": 4677,
      "Ġlie": 4678,
      "ĠMummy": 4679,
      "htray": 4680,
      "Ġashtray": 4681,
      "Ġsport": 4682,
      "Ġstarting": 4683,
      "Ġshoulder": 4684,
      "ĠPinky": 4685,
      "reeze": 4686,
      "Ġthanks": 4687,
      "Ġminute": 4688,
      "olog": 4689,
      "Ġdisappear": 4690,
      "Ġcourage": 4691,
      "Daddy": 4692,
      "Ġapolog": 4693,
      "Ġrespectful": 4694,
      "Ġscratch": 4695,
      "Ġlangu": 4696,
      "Ġstadium": 4697,
      "cer": 4698,
      "ges": 4699,
      "Ġpad": 4700,
      "Ġpage": 4701,
      "Ġexcla": 4702,
      "Ġbadly": 4703,
      "ĠPenny": 4704,
      "Ġfloated": 4705,
      "Ġheads": 4706,
      "osie": 4707,
      "Ġstrike": 4708,
      "Ġweeping": 4709,
      "Ġpedal": 4710,
      "Mimi": 4711,
      "Welcome": 4712,
      "oe": 4713,
      "ĠQu": 4714,
      "Ġlid": 4715,
      "erc": 4716,
      "ides": 4717,
      "ĠSm": 4718,
      "Ġthumb": 4719,
      "Ġfort": 4720,
      "Ġflies": 4721,
      "ĠKing": 4722,
      "thank": 4723,
      "Ġfreeze": 4724,
      "Ġimagination": 4725,
      "Ġacorns": 4726,
      "Ġgiggle": 4727,
      "Ġburned": 4728,
      "Ġdrops": 4729,
      "Ġbeans": 4730,
      "Ġencourage": 4731,
      "Ġsniffed": 4732,
      "Ġprepare": 4733,
      "Ġsandcastle": 4734,
      "eor": 4735,
      "va": 4736,
      "Ġx": 4737,
      "Ġsi": 4738,
      "ĠTuesday": 4739,
      "Ġgas": 4740,
      "riage": 4741,
      "Ġevent": 4742,
      "raged": 4743,
      "Ġcared": 4744,
      "Ġexerc": 4745,
      "uct": 4746,
      "Ġmyself": 4747,
      "ĠRachel": 4748,
      "otten": 4749,
      "Ġsparkled": 4750,
      "Ġsplashing": 4751,
      "Ġenter": 4752,
      "ĠNext": 4753,
      "Ġkneel": 4754,
      "Ġslippery": 4755,
      "Ġexclaimed": 4756,
      "eorge": 4757,
      "All": 4758,
      "mare": 4759,
      "noon": 4760,
      "Ġfurt": 4761,
      "ĠTed": 4762,
      "Ġoxygen": 4763,
      "Ġrow": 4764,
      "Ġequ": 4765,
      "ĠWould": 4766,
      "Ġafternoon": 4767,
      "ĠWhenever": 4768,
      "Ġkeeping": 4769,
      "Ġhopes": 4770,
      "Ġcountry": 4771,
      "ampoo": 4772,
      "Ġtreasures": 4773,
      "Ġmonkeys": 4774,
      "Ġbelieved": 4775,
      "ĠSte": 4776,
      "arlie": 4777,
      "Ġharb": 4778,
      "Ġprunes": 4779,
      "Ġyawn": 4780,
      "ĠUn": 4781,
      "Le": 4782,
      "Woof": 4783,
      "Ġhon": 4784,
      "isty": 4785,
      "ĠHave": 4786,
      "Ġshampoo": 4787,
      "ddy": 4788,
      "ucked": 4789,
      "emember": 4790,
      "Ġnightmare": 4791,
      "Ġplanned": 4792,
      "Ġmarriage": 4793,
      "Ġeasily": 4794,
      "Ġsneezed": 4795,
      "Ġstruggle": 4796,
      "ĠSharing": 4797,
      "Ready": 4798,
      "ĠOwl": 4799,
      "Ġpermit": 4800,
      "resses": 4801,
      "Ġbreathe": 4802,
      "Ġfurther": 4803,
      "cream": 4804,
      "spec": 4805,
      "Ġwob": 4806,
      "Ġbeg": 4807,
      "ĠLucky": 4808,
      "ĠAlex": 4809,
      "Ġjazz": 4810,
      "Ġofficer": 4811,
      "Ġbrain": 4812,
      "Ġmoves": 4813,
      "Ġcontent": 4814,
      "Ġbouncing": 4815,
      "Ġchoice": 4816,
      "Ġfolded": 4817,
      "Ġentered": 4818,
      "Ġvanished": 4819,
      "Ġmuffins": 4820,
      "Ġpeanuts": 4821,
      "Ġharbor": 4822,
      "Sh": 4823,
      "ef": 4824,
      "ially": 4825,
      "Ġcape": 4826,
      "ĠSund": 4827,
      "Ġlicks": 4828,
      "ĠBig": 4829,
      "elvet": 4830,
      "Ġnobody": 4831,
      "ĠDave": 4832,
      "Ġvroom": 4833,
      "Ġimage": 4834,
      "Ġoffer": 4835,
      "Ġwriting": 4836,
      "Ġclapping": 4837,
      "acked": 4838,
      "cond": 4839,
      "ĠOr": 4840,
      "Ġsnowball": 4841,
      "Ġsailing": 4842,
      "Ġstreng": 4843,
      "ĠBubbles": 4844,
      "Ġwarn": 4845,
      "Ġracing": 4846,
      "Ġshivering": 4847,
      "Grandma": 4848,
      "Ġobserve": 4849,
      "specially": 4850,
      "ĠSunday": 4851,
      "cake": 4852,
      "Ġbaking": 4853,
      "Ġwaving": 4854,
      "Ġespecially": 4855,
      "ĠBow": 4856,
      "Ġsoak": 4857,
      "Ġsecond": 4858,
      "Ġscold": 4859,
      "Ġskill": 4860,
      "Ġraining": 4861,
      "ĠPat": 4862,
      "Ġcoats": 4863,
      "Before": 4864,
      "Ġcandles": 4865,
      "Ġpunished": 4866,
      "Ġrecognize": 4867,
      "ĠHelp": 4868,
      "Ġstrength": 4869,
      "Ġsir": 4870,
      "Ġbother": 4871,
      "ising": 4872,
      "ĠSee": 4873,
      "illie": 4874,
      "ops": 4875,
      "Ġchirp": 4876,
      "Ġslap": 4877,
      "ĠCl": 4878,
      "ipment": 4879,
      "ĠWho": 4880,
      "Ġpaused": 4881,
      "Ġlions": 4882,
      "Ġdancer": 4883,
      "Ġwags": 4884,
      "Ġnetwork": 4885,
      "Ġapart": 4886,
      "Ġcreatures": 4887,
      "Ġencouraged": 4888,
      "Ġinclude": 4889,
      "Ġstomach": 4890,
      "bles": 4891,
      "ester": 4892,
      "ĊĠ": 4893,
      "Ġfed": 4894,
      "ĠTw": 4895,
      "Ġdresses": 4896,
      "ari": 4897,
      "oral": 4898,
      "Ġshock": 4899,
      "hter": 4900,
      "Ġreaches": 4901,
      "ecting": 4902,
      "Ġalive": 4903,
      "Ġlaughter": 4904,
      "ffic": 4905,
      "Ġtraffic": 4906,
      "Ġappla": 4907,
      "Ġwagging": 4908,
      "Ġsub": 4909,
      "Ġteaching": 4910,
      "Ġworms": 4911,
      "Ġcelebrated": 4912,
      "Ġwandered": 4913,
      "Ġurge": 4914,
      "ricane": 4915,
      "Ġintroduce": 4916,
      "Ġequipment": 4917,
      "esterday": 4918,
      "Ġapplaud": 4919,
      "Ann": 4920,
      "Jenny": 4921,
      "sed": 4922,
      "omas": 4923,
      "Ġscore": 4924,
      "Ġgreedy": 4925,
      "izes": 4926,
      "Ġbrighter": 4927,
      "Ġfollows": 4928,
      "Ġdisc": 4929,
      "queaky": 4930,
      "Ġplanted": 4931,
      "Ġlightning": 4932,
      "Ġlandscape": 4933,
      "Ġcounter": 4934,
      "Ġsigns": 4935,
      "Ġpastel": 4936,
      "Ġhearts": 4937,
      "Ġchewed": 4938,
      "Ġexper": 4939,
      "Everyone": 4940,
      "Ġpirates": 4941,
      "Emma": 4942,
      "Ġhunter": 4943,
      "ccer": 4944,
      "reat": 4945,
      "Ġlined": 4946,
      "Ġdigg": 4947,
      "Ġduring": 4948,
      "Ġpur": 4949,
      "ĠHenry": 4950,
      "Ġplaced": 4951,
      "Ġoh": 4952,
      "ĠLola": 4953,
      "ĠMandy": 4954,
      "Ġkitty": 4955,
      "These": 4956,
      "Ġblink": 4957,
      "Ġtwisty": 4958,
      "ĠRosie": 4959,
      "ĠFinny": 4960,
      "Ġblankets": 4961,
      "Ġwelcomed": 4962,
      "Ġpuzzles": 4963,
      "ooped": 4964,
      "Ġzoomed": 4965,
      "Ġneighbour": 4966,
      "ĠGod": 4967,
      "ween": 4968,
      "Ġprayed": 4969,
      "ĠUnder": 4970,
      "Ġbetween": 4971,
      "Ġlugg": 4972,
      "Ġpalm": 4973,
      "ĠSk": 4974,
      "ories": 4975,
      "Ġmanage": 4976,
      "Ġmeowed": 4977,
      "Ġmuddy": 4978,
      "Ġvac": 4979,
      "Ġpoison": 4980,
      "inkle": 4981,
      "Ġhurting": 4982,
      "Ġtracks": 4983,
      "Ġdressed": 4984,
      "ship": 4985,
      "ĠGrace": 4986,
      "Ġscreams": 4987,
      "Ġraised": 4988,
      "Ġjogged": 4989,
      "Ġscrat": 4990,
      "ĠVelvet": 4991,
      "Ġincrease": 4992,
      "Ġlanguage": 4993,
      "Ġexercise": 4994,
      "Ġdigging": 4995,
      "Ġluggage": 4996,
      "Ġvacation": 4997,
      "With": 4998,
      "Ġtug": 4999,
      "Ġtuna": 5000,
      "ĠSqueaky": 5001,
      "Ġsoccer": 5002,
      "Ġagre": 5003,
      "Ġexpect": 5004,
      "Ġcomf": 5005,
      "Ġchecked": 5006,
      "Ġfiref": 5007,
      "Ġthrows": 5008,
      "Ġsliding": 5009,
      "Ġvanish": 5010,
      "Ġtomatoes": 5011,
      "Ġuniverse": 5012,
      "Ġsnuggled": 5013,
      "iers": 5014,
      "look": 5015,
      "hest": 5016,
      "ĠToto": 5017,
      "arnt": 5018,
      "Ġshined": 5019,
      "chan": 5020,
      "Ġreef": 5021,
      "Ġlearnt": 5022,
      "Ġbackpack": 5023,
      "ĠElly": 5024,
      "Ġburied": 5025,
      "Ġquite": 5026,
      "Ġcutting": 5027,
      "Ġclosely": 5028,
      "Ġsits": 5029,
      "Ġsetting": 5030,
      "Ġgifts": 5031,
      "Ġcheek": 5032,
      "Ġcartoons": 5033,
      "Ġgrowled": 5034,
      "Not": 5035,
      "Ġbreeze": 5036,
      "Ġmention": 5037,
      "Ġplays": 5038,
      "Ġweb": 5039,
      "Ġupstairs": 5040,
      "ĠIts": 5041,
      "Ġmechan": 5042,
      "Ġfash": 5043,
      "ĠWally": 5044,
      "Ġpoking": 5045,
      "Ġclimbs": 5046,
      "ĠEverything": 5047,
      "Ġblueberry": 5048,
      "Ġcrash": 5049,
      "Ġrestore": 5050,
      "Ġfallen": 5051,
      "Ġwinner": 5052,
      "Ġcreated": 5053,
      "Ġspots": 5054,
      "Ġpinched": 5055,
      "Ġsoldiers": 5056,
      "Ġpotatoes": 5057,
      "Ġmemories": 5058,
      "Ġmechanic": 5059,
      "house": 5060,
      "ne": 5061,
      "Ġsimp": 5062,
      "Ġwashing": 5063,
      "Ġreque": 5064,
      "Ġspit": 5065,
      "Ġexit": 5066,
      "Ġwatered": 5067,
      "Ġpears": 5068,
      "ĠEach": 5069,
      "Ġremain": 5070,
      "Ġpulling": 5071,
      "Ġjogging": 5072,
      "Ġsolved": 5073,
      "Ġwisdom": 5074,
      "Ġhurricane": 5075,
      "Ġblowing": 5076,
      "ĠBouncy": 5077,
      "Ġmeasured": 5078,
      "Ġbrick": 5079,
      "Ġfashion": 5080,
      "Ġrequest": 5081,
      "Jen": 5082,
      "Moral": 5083,
      "ippy": 5084,
      "oves": 5085,
      "heart": 5086,
      "ĠIs": 5087,
      "ĠMoon": 5088,
      "Ġleak": 5089,
      "Ġbrings": 5090,
      "Ġsnail": 5091,
      "Ġgloves": 5092,
      "Ġshouldn": 5093,
      "Ġbeauty": 5094,
      "ĠRo": 5095,
      "Ġours": 5096,
      "Ġdelay": 5097,
      "avid": 5098,
      "Ġbites": 5099,
      "Ġattached": 5100,
      "Ġsafari": 5101,
      "Ġmemory": 5102,
      "Ġpatterns": 5103,
      "Ġsubway": 5104,
      "Surpr": 5105,
      "nce": 5106,
      "ury": 5107,
      "uss": 5108,
      "walk": 5109,
      "year": 5110,
      "Ġtoes": 5111,
      "Ġtour": 5112,
      "Ġgain": 5113,
      "ena": 5114,
      "Ġstair": 5115,
      "unately": 5116,
      "Ġrelease": 5117,
      "Ġbrus": 5118,
      "Ġshower": 5119,
      "Ġcolours": 5120,
      "Ġdifference": 5121,
      "Ġwinning": 5122,
      "Ġmarbles": 5123,
      "ĠJoey": 5124,
      "ittens": 5125,
      "Ġwhistled": 5126,
      "Ġbuckle": 5127,
      "Ġlemonade": 5128,
      "ĠSomeone": 5129,
      "Ġdestroyed": 5130,
      "Ġsettle": 5131,
      "Ġdiscuss": 5132,
      "Bella": 5133,
      "Yum": 5134,
      "hew": 5135,
      "Ġsizes": 5136,
      "Ġble": 5137,
      "Ġtong": 5138,
      "Ġfet": 5139,
      "ites": 5140,
      "Ġdare": 5141,
      "Ġmice": 5142,
      "ero": 5143,
      "Ġgaz": 5144,
      "ppers": 5145,
      "Ġrul": 5146,
      "Ġsty": 5147,
      "Ġhadn": 5148,
      "Ġweight": 5149,
      "Ġsoil": 5150,
      "Ġpebbles": 5151,
      "Ġideas": 5152,
      "Ġshouting": 5153,
      "Ġsweetheart": 5154,
      "ĠZoomy": 5155,
      "Goodbye": 5156,
      "Ġmarching": 5157,
      "Ġspaceship": 5158,
      "Ġignored": 5159,
      "Ġdisagree": 5160,
      "ux": 5161,
      "Ġtide": 5162,
      "Ġbur": 5163,
      "Ġbang": 5164,
      "rec": 5165,
      "Ġhated": 5166,
      "orted": 5167,
      "ĠAb": 5168,
      "ĠAva": 5169,
      "Ġflap": 5170,
      "Ġprett": 5171,
      "ĠEventually": 5172,
      "Ġsorts": 5173,
      "Ġlets": 5174,
      "ction": 5175,
      "Ġbeds": 5176,
      "Ġcatching": 5177,
      "ĠGood": 5178,
      "Ġresting": 5179,
      "Ġsidewalk": 5180,
      "Ġpets": 5181,
      "Ġwarning": 5182,
      "Ġreceive": 5183,
      "Ġsiren": 5184,
      "Because": 5185,
      "ived": 5186,
      "iately": 5187,
      "pted": 5188,
      "Ġing": 5189,
      "Ġlec": 5190,
      "Ġlung": 5191,
      "Ġpra": 5192,
      "ĠHoppy": 5193,
      "vest": 5194,
      "ĠLiz": 5195,
      "ĠBo": 5196,
      "Ġtremb": 5197,
      "apa": 5198,
      "Ġpoppy": 5199,
      "Ġsnapped": 5200,
      "Ġcakes": 5201,
      "Ġcras": 5202,
      "mediately": 5203,
      "Ġinvitation": 5204,
      "Ġinstr": 5205,
      "ĠSteve": 5206,
      "looking": 5207,
      "Ġlecture": 5208,
      "Tr": 5209,
      "right": 5210,
      "Ġdried": 5211,
      "Ġpies": 5212,
      "igail": 5213,
      "Ġhers": 5214,
      "Ġeast": 5215,
      "Ġfro": 5216,
      "Ġpeppers": 5217,
      "aker": 5218,
      "ĠPaul": 5219,
      "Ġbelow": 5220,
      "redient": 5221,
      "Ġpaints": 5222,
      "Ġquietly": 5223,
      "fortunately": 5224,
      "Ġlemons": 5225,
      "Ġeagerly": 5226,
      "Ġaccepted": 5227,
      "Ġstudied": 5228,
      "Ġingredient": 5229,
      "kins": 5230,
      "mm": 5231,
      "sit": 5232,
      "Ġtucked": 5233,
      "isses": 5234,
      "Ġnavy": 5235,
      "ĠSlow": 5236,
      "Ġstitch": 5237,
      "kelly": 5238,
      "Ġkisses": 5239,
      "Ġmeow": 5240,
      "Ġnews": 5241,
      "Ġworth": 5242,
      "antly": 5243,
      "Ġunderground": 5244,
      "Ġgrin": 5245,
      "Ġfamil": 5246,
      "bbie": 5247,
      "ĠRock": 5248,
      "Ġdrinking": 5249,
      "Ġzigzag": 5250,
      "Ġvisited": 5251,
      "Ġdeeper": 5252,
      "ipping": 5253,
      "ĠZara": 5254,
      "Ġpetals": 5255,
      "ĠAnnie": 5256,
      "Ġsurround": 5257,
      "Ġwhisper": 5258,
      "Ġnails": 5259,
      "uxury": 5260,
      "'ve": 5261,
      "Cat": 5262,
      "Fred": 5263,
      "aved": 5264,
      "hood": 5265,
      "ĠSu": 5266,
      "Ġworse": 5267,
      "Ġrang": 5268,
      "Ġstrings": 5269,
      "Ġstrang": 5270,
      "Ġtwisted": 5271,
      "ĠPip": 5272,
      "Ġbreaking": 5273,
      "Ġconf": 5274,
      "Ġkingdom": 5275,
      "Ġresp": 5276,
      "Ġguy": 5277,
      "Ġbringing": 5278,
      "Ġparts": 5279,
      "Ġspoons": 5280,
      "Ġpancake": 5281,
      "Today": 5282,
      "Ġprice": 5283,
      "Ġunlocked": 5284,
      "Ġbloomed": 5285,
      "Ġfireworks": 5286,
      "Ġlips": 5287,
      "Ġingredients": 5288,
      "Bl": 5289,
      "boo": 5290,
      "bug": 5291,
      "Ġwink": 5292,
      "ĠSkelly": 5293,
      "ĠHarry": 5294,
      "utter": 5295,
      "ĠMillie": 5296,
      "Ġgirls": 5297,
      "Ġwatches": 5298,
      "Ġhighest": 5299,
      "Ġbye": 5300,
      "Ġnowhere": 5301,
      "Ġwrites": 5302,
      "ĠGeorge": 5303,
      "Ġhops": 5304,
      "Ġprinted": 5305,
      "Ġattention": 5306,
      "Ġcollected": 5307,
      "Ġeasier": 5308,
      "Ġjewels": 5309,
      "Ġkicking": 5310,
      "Ġstripes": 5311,
      "Ġguessed": 5312,
      "omeday": 5313,
      "Leo": 5314,
      "Ġscolded": 5315,
      "Ġbleed": 5316,
      "Ġruler": 5317,
      "reci": 5318,
      "Bu": 5319,
      "Remy": 5320,
      "cage": 5321,
      "Ġsomeday": 5322,
      "Ġtore": 5323,
      "ĠHappy": 5324,
      "Ġinvest": 5325,
      "Ġbeamed": 5326,
      "sters": 5327,
      "une": 5328,
      "ĠMo": 5329,
      "ĠMittens": 5330,
      "Ġshot": 5331,
      "Ġbirdcage": 5332,
      "Ġarea": 5333,
      "ĠDavid": 5334,
      "Ġsorting": 5335,
      "Ġstruck": 5336,
      "ips": 5337,
      "ĠPapa": 5338,
      "Ġappreci": 5339,
      "Ġmarried": 5340,
      "Ġhits": 5341,
      "Ġresult": 5342,
      "Ġperfectly": 5343,
      "ĠCharlie": 5344,
      "Ġsprink": 5345,
      "Ġmarks": 5346,
      "Ġchewing": 5347,
      "Ġseats": 5348,
      "Ġstraight": 5349,
      "Ġshadows": 5350,
      "Ġcapt": 5351,
      "Ġburning": 5352,
      "Ġstrawberries": 5353,
      "Ġinclud": 5354,
      "Ġmeasuring": 5355,
      "Ġrevealed": 5356,
      "ĠSmith": 5357,
      "Surprise": 5358,
      "gie": 5359,
      "Ġsince": 5360,
      "Ġpitch": 5361,
      "anny": 5362,
      "Ġyucky": 5363,
      "ĠBaby": 5364,
      "choo": 5365,
      "Ġknown": 5366,
      "ĠJul": 5367,
      "ĠDare": 5368,
      "Ġvict": 5369,
      "Ġcub": 5370,
      "Ġimmediately": 5371,
      "Ġforgotten": 5372,
      "Ġmuscles": 5373,
      "Ġemer": 5374,
      "Ġsecrets": 5375,
      "Ġbouncy": 5376,
      "Ġwhistling": 5377,
      "ĠBefore": 5378,
      "Ġcrawling": 5379,
      "Ġfishing": 5380,
      "Ġscattered": 5381,
      "Ġmelting": 5382,
      "Ġreceived": 5383,
      "ĠBounce": 5384,
      "ĠRuby": 5385,
      "Ġexperience": 5386,
      "Ġinvestig": 5387,
      "Mandy": 5388,
      "Ġbab": 5389,
      "Ġluxury": 5390,
      "ĠThese": 5391,
      "Ġnicer": 5392,
      "ids": 5393,
      "Ġinch": 5394,
      "ĠLater": 5395,
      "Ġwest": 5396,
      "ĠBoth": 5397,
      "ĠMay": 5398,
      "ents": 5399,
      "Ġshed": 5400,
      "!\",": 5401,
      "Ġallow": 5402,
      "Ġsew": 5403,
      "aggie": 5404,
      "Ġflat": 5405,
      "Ġblood": 5406,
      "Ġchef": 5407,
      "Ġtrave": 5408,
      "Ġtrapped": 5409,
      "Ġbehaved": 5410,
      "Ġlands": 5411,
      "Ġmouths": 5412,
      "ups": 5413,
      "Ġgolden": 5414,
      "ĠSnowy": 5415,
      "Ġpupil": 5416,
      "ĠMaria": 5417,
      "Ġstyle": 5418,
      "Ġstrangers": 5419,
      "ther": 5420,
      "Ġtonight": 5421,
      "idges": 5422,
      "Ġgained": 5423,
      "ĠHop": 5424,
      "Ġthreat": 5425,
      "ĠLou": 5426,
      "aded": 5427,
      "Ġseeing": 5428,
      "Ġlaid": 5429,
      "Ġago": 5430,
      "Ġbridges": 5431,
      "ssible": 5432,
      "ĠJan": 5433,
      "quake": 5434,
      "Ġremained": 5435,
      "Sammy": 5436,
      "ĠJenna": 5437,
      "Ġdrinks": 5438,
      "Ġspiders": 5439,
      "Ġhurried": 5440,
      "Ġrelaxed": 5441,
      "Ġsilence": 5442,
      "Ġtwirled": 5443,
      "Ġdisagreed": 5444,
      "Ġsimple": 5445,
      "Ġtongue": 5446,
      "ĠSuzy": 5447,
      "Ġbabies": 5448,
      "ring": 5449,
      "ĠTilly": 5450,
      "Ġhen": 5451,
      "Ġnone": 5452,
      "Ġgust": 5453,
      "ana": 5454,
      "ley": 5455,
      "ĠHoot": 5456,
      "Ġseason": 5457,
      "ica": 5458,
      "Ġsorted": 5459,
      "plash": 5460,
      "izing": 5461,
      "Ġworks": 5462,
      "Ġimportance": 5463,
      "Ġripped": 5464,
      "Ġtouching": 5465,
      "Ġamazement": 5466,
      "Ġmoments": 5467,
      "Ġmixing": 5468,
      "Bobby": 5469,
      "Ġunderstanding": 5470,
      "Ġshopkeeper": 5471,
      "Ġprints": 5472,
      "Ġbalan": 5473,
      "laire": 5474,
      "ĠBirdie": 5475,
      "Ġselling": 5476,
      "Ġstretching": 5477,
      "Ġfloating": 5478,
      "gency": 5479,
      "ĠFox": 5480,
      "Ġsneak": 5481,
      "Ġearthquake": 5482,
      "Ġskills": 5483,
      "Ġfetch": 5484,
      "Ġpraised": 5485,
      "Ġfamilies": 5486,
      "Ġcaptain": 5487,
      "Ġvictory": 5488,
      "Ġinvestigate": 5489,
      "Ha": 5490,
      "Ollie": 5491,
      "lvet": 5492,
      "hello": 5493,
      "Ġsip": 5494,
      "Ġbones": 5495,
      "Ġhi": 5496,
      "ishing": 5497,
      "iggy": 5498,
      "Ġplaytime": 5499,
      "Ġsting": 5500,
      "ĠMix": 5501,
      "Ġisn": 5502,
      "Ġloving": 5503,
      "ĠAn": 5504,
      "Ġdoggy": 5505,
      "ĠThomas": 5506,
      "bbing": 5507,
      "Ġappear": 5508,
      "ĠGreen": 5509,
      "Ġfiremen": 5510,
      "Ġacted": 5511,
      "Ġvelvet": 5512,
      "Ġkeys": 5513,
      "Ġelephants": 5514,
      "Ġdecorations": 5515,
      "Ġmountains": 5516,
      "Ġtwigs": 5517,
      "Ġminerals": 5518,
      "ĠQuack": 5519,
      "Ġbrushes": 5520,
      "Ġtrembling": 5521,
      "'.": 5522,
      "dam": 5523,
      "rin": 5524,
      "Ġfut": 5525,
      "ĠTuna": 5526,
      "Ġwaist": 5527,
      "ored": 5528,
      "ĠHope": 5529,
      "ĠBinky": 5530,
      "ĠFirst": 5531,
      "Ġpride": 5532,
      "aped": 5533,
      "Ġopin": 5534,
      "Ġskipping": 5535,
      "Ġgrant": 5536,
      "Ġappro": 5537,
      "Ġcrunch": 5538,
      "Ġwonders": 5539,
      "Ġbuckets": 5540,
      "Ġdrums": 5541,
      "ĠStitch": 5542,
      "Ġadmir": 5543,
      "ĠDanny": 5544,
      "Ġbuzzing": 5545,
      "Ġfirefight": 5546,
      "Ġgazed": 5547,
      "ĠAbigail": 5548,
      "Ġfuture": 5549,
      "Dog": 5550,
      "Un": 5551,
      "eep": 5552,
      "mother": 5553,
      "oming": 5554,
      "ishes": 5555,
      "Ġitem": 5556,
      "Ġyesterday": 5557,
      "chie": 5558,
      "ĠChew": 5559,
      "ĠGr": 5560,
      "Ġbowed": 5561,
      "Ġbaked": 5562,
      "ĠSomething": 5563,
      "Ġstuffed": 5564,
      "Ġbricks": 5565,
      "ĠFroggy": 5566,
      "Ella": 5567,
      "Yummy": 5568,
      "bi": 5569,
      "ho": 5570,
      "sing": 5571,
      "xture": 5572,
      "Ġsides": 5573,
      "Ġhesit": 5574,
      "Ġgaze": 5575,
      "ety": 5576,
      "Ġrust": 5577,
      "Ġesc": 5578,
      "Ġalright": 5579,
      "Ġwhatever": 5580,
      "Ġslapped": 5581,
      "Ġtexture": 5582,
      "Ġturning": 5583,
      "Ġglitter": 5584,
      "Ġquack": 5585,
      "bey": 5586,
      "Ġwaits": 5587,
      "Ġmonsters": 5588,
      "Ġrested": 5589,
      "Ġvoices": 5590,
      "Ġtastes": 5591,
      "Ġpupp": 5592,
      "Ġmatched": 5593,
      "Ġcontain": 5594,
      "Ġbottles": 5595,
      "Ġcontinue": 5596,
      "Ġsparkle": 5597,
      "ĠPippa": 5598,
      "ĠBetsy": 5599,
      "ĠFollow": 5600,
      "Really": 5601,
      "Ġapologize": 5602,
      "Ġopinion": 5603,
      "Eventually": 5604,
      "Happy": 5605,
      "Mmm": 5606,
      "Ok": 5607,
      "do": 5608,
      "rr": 5609,
      "Ġdared": 5610,
      "Ġdire": 5611,
      "Ġnapping": 5612,
      "Ġobey": 5613,
      "Ġhappiest": 5614,
      "allen": 5615,
      "Ġlick": 5616,
      "ĠAbbie": 5617,
      "Ġcans": 5618,
      "Ġsadness": 5619,
      "icky": 5620,
      "Ġchallen": 5621,
      "Ġpeel": 5622,
      "Momo": 5623,
      "Ġstaying": 5624,
      "Ġbravely": 5625,
      "Ġwarmth": 5626,
      "Ġcones": 5627,
      "Ġzipped": 5628,
      "Ġsisters": 5629,
      "Ġfields": 5630,
      "ĠZiggy": 5631,
      "Ġtrips": 5632,
      "aws": 5633,
      "ĠAlways": 5634,
      "Ġsafety": 5635,
      "Ġmelted": 5636,
      "Ġforks": 5637,
      "Ġsneaky": 5638,
      "Ġurged": 5639,
      "Ġwiggle": 5640,
      "ĠUncle": 5641,
      "Ġscratched": 5642,
      "Ġmentioned": 5643,
      "ĠRocky": 5644,
      "Bird": 5645,
      "First": 5646,
      "bers": 5647,
      "oved": 5648,
      "Ġlily": 5649,
      "Ġpause": 5650,
      "Ġhissed": 5651,
      "Ġstro": 5652,
      "Ġeff": 5653,
      "ĠLike": 5654,
      "Ġloose": 5655,
      "ores": 5656,
      "icing": 5657,
      "Ġknelt": 5658,
      "Ġfrost": 5659,
      "umes": 5660,
      "umble": 5661,
      "Ġscooped": 5662,
      "Ġlap": 5663,
      "Ġsunlight": 5664,
      "Ġeats": 5665,
      "Ġsled": 5666,
      "essica": 5667,
      "Ġclearing": 5668,
      "Ġtwin": 5669,
      "Ġteasing": 5670,
      "Ġourselves": 5671,
      "Ġladybug": 5672,
      "anges": 5673,
      "Ġcollecting": 5674,
      "Ġpillows": 5675,
      "Ġtickle": 5676,
      "Ġordered": 5677,
      "Ġgems": 5678,
      "Ġcostumes": 5679,
      "Ġstruggled": 5680,
      "Ġvehicles": 5681,
      "Ġprepared": 5682,
      "Ġmittens": 5683,
      "...": 5684,
      "Ġcurled": 5685,
      "Ġhonk": 5686,
      "ĠSkip": 5687,
      "Blue": 5688,
      "Ġemergency": 5689,
      "Ġfrosting": 5690,
      "\",": 5691,
      "Or": 5692,
      "Somet": 5693,
      "Tina": 5694,
      "ding": 5695,
      "hind": 5696,
      "ped": 5697,
      "ues": 5698,
      "ities": 5699,
      "Ġcust": 5700,
      "ĠSun": 5701,
      "Ġbeside": 5702,
      "Ġtheirs": 5703,
      "Ġfault": 5704,
      "ĠJu": 5705,
      "ĠJames": 5706,
      "ĠDin": 5707,
      "Ġvet": 5708,
      "Ġoverjoy": 5709,
      "embers": 5710,
      "Ġremembers": 5711,
      "ĠWhist": 5712,
      "âĢĿ.": 5713,
      "Ġwooden": 5714,
      "Ġsparkling": 5715,
      "ĠStar": 5716,
      "Ġzookeeper": 5717,
      "Ġheroes": 5718,
      "Ġdiscovery": 5719,
      "Ġstealing": 5720,
      "Ġpoems": 5721,
      "Ġspending": 5722,
      "Ġsucceeded": 5723,
      "Ġgrandmother": 5724,
      "ĠSnowman": 5725,
      "Ġsettled": 5726,
      "Ġdemanded": 5727,
      "Ġcrashed": 5728,
      "True": 5729,
      "Ġsurrounded": 5730,
      "Ġcustom": 5731,
      "Ġoverjoyed": 5732,
      "Remember": 5733,
      "eff": 5734,
      "ler": 5735,
      "Ġboo": 5736,
      "Ġdaisy": 5737,
      "amie": 5738,
      "Ġsoaked": 5739,
      "ĠAm": 5740,
      "ĠAunt": 5741,
      "Ġexpected": 5742,
      "Ġpearl": 5743,
      "Ġdads": 5744,
      "Ġrocking": 5745,
      "ĠRemember": 5746,
      "Ġowned": 5747,
      "osed": 5748,
      "osity": 5749,
      "Ġarrive": 5750,
      "Ġmachines": 5751,
      "Ġorganizing": 5752,
      "ĠNot": 5753,
      "irring": 5754,
      "Ġdinosaurs": 5755,
      "Ġrecorded": 5756,
      "Ġstamps": 5757,
      "Grandpa": 5758,
      "Ġsausages": 5759,
      "Ġkneeled": 5760,
      "Fo": 5761,
      "Uh": 5762,
      "ĠX": 5763,
      "Ġwid": 5764,
      "Ġbunn": 5765,
      "Ġlines": 5766,
      "Ġmister": 5767,
      "Ġstare": 5768,
      "Ġroaring": 5769,
      "Ġnoon": 5770,
      "Ġchores": 5771,
      "uses": 5772,
      "Ġunf": 5773,
      "Ġfoods": 5774,
      "Ġglasses": 5775,
      "ctly": 5776,
      "ĠRay": 5777,
      "ĠFinn": 5778,
      "Ġdances": 5779,
      "Ġpaintings": 5780,
      "Ġrainbows": 5781,
      "Ġpiles": 5782,
      "Ġmotion": 5783,
      "Ġfolding": 5784,
      "Ġringing": 5785,
      "Ġsupposed": 5786,
      "Ġmisses": 5787,
      "Ġshooting": 5788,
      "Ġdusty": 5789,
      "ĠFoxy": 5790,
      "Ġcuddled": 5791,
      "Ġsighs": 5792,
      "Ġsnowballs": 5793,
      "Ġbleeding": 5794,
      "Ġsprinkles": 5795,
      "Ġadmiring": 5796,
      "Ġeffort": 5797,
      "Ġbunnies": 5798,
      "Boo": 5799,
      "Have": 5800,
      "Ru": 5801,
      "Toby": 5802,
      "Would": 5803,
      "aver": 5804,
      "omp": 5805,
      "imy": 5806,
      "lle": 5807,
      "ords": 5808,
      "Ġthrill": 5809,
      "Ġstirring": 5810,
      "stick": 5811,
      "ĠLilly": 5812,
      "enty": 5813,
      "Ġcatches": 5814,
      "ĠWater": 5815,
      "Ġslimy": 5816,
      "Whiskers": 5817,
      "Ġkeeps": 5818,
      "Ġdraws": 5819,
      "Ġpolished": 5820,
      "ĠChip": 5821,
      "ĠZigzag": 5822,
      "Ġcaused": 5823,
      "Ġroads": 5824,
      "Ġteaches": 5825,
      "ĠBluey": 5826,
      "Ġacting": 5827,
      "Ġchases": 5828,
      "Ġadding": 5829,
      "Ġhorns": 5830,
      "lowers": 5831,
      "Ġcuddle": 5832,
      "Ġchirped": 5833,
      "ĠSlowly": 5834,
      "Ġescaped": 5835,
      "!'": 5836,
      ".'": 5837,
      "Fr": 5838,
      "Jake": 5839,
      "Miss": 5840,
      "ded": 5841,
      "gers": 5842,
      "ien": 5843,
      "ibb": 5844,
      "ky": 5845,
      "lier": 5846,
      "please": 5847,
      "zen": 5848,
      "Ġawe": 5849,
      "Ġachie": 5850,
      "Ġfir": 5851,
      "ays": 5852,
      "ĠSandy": 5853,
      "Ġbeat": 5854,
      "ĠLena": 5855,
      "Ġweighed": 5856,
      "ĠBark": 5857,
      "indy": 5858,
      "Ġrele": 5859,
      "Ġstaring": 5860,
      "Ġscaring": 5861,
      "ĠWelcome": 5862,
      "ĠJoy": 5863,
      "Ġflav": 5864,
      "Ġanytime": 5865,
      "ĠPut": 5866,
      "Ġremoved": 5867,
      "Benny": 5868,
      "Ġdarker": 5869,
      "Ġrolls": 5870,
      "Ġcompany": 5871,
      "Ġprec": 5872,
      "ĠLeave": 5873,
      "Ġserved": 5874,
      "ĠFreddy": 5875,
      "Ġactions": 5876,
      "Ġcollection": 5877,
      "Ġrefle": 5878,
      "Ġrefuse": 5879,
      "Ġstudying": 5880,
      "Ġrides": 5881,
      "Ġloaded": 5882,
      "Ġobserved": 5883,
      "Ġbegged": 5884,
      "Ġcomforted": 5885,
      "Ġcrunchy": 5886,
      "Ġitems": 5887,
      "Sometimes": 5888,
      "Fine": 5889,
      "oh": 5890,
      "ĠQ": 5891,
      "Ġwiz": 5892,
      "Ġcash": 5893,
      "ora": 5894,
      "ĠMaggie": 5895,
      "Ġsore": 5896,
      "Ġhelpers": 5897,
      "ĠAlly": 5898,
      "Ġsmallest": 5899,
      "ashed": 5900,
      "Ġfears": 5901,
      "ĠCra": 5902,
      "Ġoranges": 5903,
      "Ġbroom": 5904,
      "Ġremote": 5905,
      "Ġtricked": 5906,
      "Ġforgi": 5907,
      "Ġshopping": 5908,
      "Ġzero": 5909,
      "Ġsteep": 5910,
      "Ġbuildings": 5911,
      "Ġpatted": 5912,
      "Ġbowls": 5913,
      "Ġearlier": 5914,
      "Ġsplashes": 5915,
      "ĠBeing": 5916,
      "Ġpacking": 5917,
      "Ġradishes": 5918,
      "Ġclaps": 5919,
      "Ġflags": 5920,
      "Ġneighborhood": 5921,
      "Ġproject": 5922,
      "ĠMissy": 5923,
      "Ġcobwebs": 5924,
      "Ġcamping": 5925,
      "Ġknees": 5926,
      "Ġpadd": 5927,
      "Ġagreement": 5928,
      "Ġinstruct": 5929,
      "Ġfrozen": 5930,
      "Ġgrinned": 5931,
      "Ġappreciate": 5932,
      "Ġtraveled": 5933,
      "During": 5934,
      "Poppy": 5935,
      "Silly": 5936,
      "fied": 5937,
      "uke": 5938,
      "Ġtugged": 5939,
      "Ġsix": 5940,
      "iti": 5941,
      "ern": 5942,
      "ĠSe": 5943,
      "Ġplayroom": 5944,
      "Ġwanting": 5945,
      "ĠBy": 5946,
      "ĠAdam": 5947,
      "Ġrocked": 5948,
      "Ġbecoming": 5949,
      "ĠWigg": 5950,
      "Ġdecides": 5951,
      "ĠDuck": 5952,
      "ogo": 5953,
      "Ġkindly": 5954,
      "Ġteased": 5955,
      "Ġhardly": 5956,
      "Ġtractor": 5957,
      "Ġdollhouse": 5958,
      "Ġopening": 5959,
      "ission": 5960,
      "ĠRabbit": 5961,
      "Ġheaded": 5962,
      "ĠGert": 5963,
      "Ġsweeties": 5964,
      "Ġseesaw": 5965,
      "Ġdrives": 5966,
      "Ġreluct": 5967,
      "Ġcomple": 5968,
      "anging": 5969,
      "Ġpetted": 5970,
      "Ġdragged": 5971,
      "Ġanswers": 5972,
      "Ġseems": 5973,
      "Ġdiving": 5974,
      "Ġneighbors": 5975,
      "Ġactually": 5976,
      "Ġhelmets": 5977,
      "Ġswans": 5978,
      "ĠPepper": 5979,
      "Ġpenguins": 5980,
      "Ġreply": 5981,
      "Ġherbs": 5982,
      "Ġtasks": 5983,
      "Ġsneaked": 5984,
      "Ġcurtains": 5985,
      "Ġawake": 5986,
      "Ġagrees": 5987,
      "Ġapproached": 5988,
      "Ġreleased": 5989,
      "Ġcashier": 5990,
      "Ah": 5991,
      "Dave": 5992,
      "Ducky": 5993,
      "Lola": 5994,
      "Sp": 5995,
      "Sus": 5996,
      "fus": 5997,
      "ril": 5998,
      "rist": 5999,
      "uly": 6000,
      "xc": 6001,
      "zing": 6002,
      "Ġwoof": 6003,
      "Ġbaker": 6004,
      "Ġbuses": 6005,
      "Ġcrew": 6006,
      "ĠSqu": 6007,
      "ĠSplash": 6008,
      "Ġbeard": 6009,
      "Ġrings": 6010,
      "Ġeight": 6011,
      "riends": 6012,
      "ĠBoo": 6013,
      "ueen": 6014,
      "Ġseas": 6015,
      "Ġfasc": 6016,
      "ĠWoof": 6017,
      "agers": 6018,
      "Ġbrushed": 6019,
      "Ġhugging": 6020,
      "Ġgrey": 6021,
      "Ġpeered": 6022,
      "Ġslice": 6023,
      "ĠClaire": 6024,
      "Ġsmiley": 6025,
      "ĠRich": 6026,
      "ĠOut": 6027,
      "ĠOur": 6028,
      "Ġpolishing": 6029,
      "Ġvisiting": 6030,
      "ĠChomp": 6031,
      "Ġvillagers": 6032,
      "Ġsnakes": 6033,
      "iggie": 6034,
      "Ġentr": 6035,
      "Ġgathering": 6036,
      "Ġdecorated": 6037,
      "Ġquarreling": 6038,
      "Ġstruggling": 6039,
      "Ġweeks": 6040,
      "Ġobjects": 6041,
      "ĠFrank": 6042,
      "Ġpermission": 6043,
      "Ġdisturbed": 6044,
      "Ġrecognized": 6045,
      "Emily": 6046,
      "Ġwobbled": 6047,
      "Ġpurred": 6048,
      "Ġprettiest": 6049,
      "Ġrespons": 6050,
      "ĠDino": 6051,
      "Ġfirm": 6052,
      "Ġprecious": 6053,
      "ĠQueen": 6054,
      "Ġwizard": 6055,
      "ĠGertie": 6056,
      "An": 6057,
      "Bunny": 6058,
      "Ew": 6059,
      "Luna": 6060,
      "Mike": 6061,
      "Paul": 6062,
      "ales": 6063,
      "cher": 6064,
      "nies": 6065,
      "zes": 6066,
      "hee": 6067,
      "Ġwound": 6068,
      "Ġbank": 6069,
      "Ġmast": 6070,
      "Ġheel": 6071,
      "anna": 6072,
      "Ġthird": 6073,
      "Ġonions": 6074,
      "ĠLove": 6075,
      "ĠBecause": 6076,
      "ĠBiggie": 6077,
      "esome": 6078,
      "Ġsoared": 6079,
      "ulp": 6080,
      "Ġswords": 6081,
      "ĠAndrew": 6082,
      "Ġslam": 6083,
      "Ġtruly": 6084,
      "inkled": 6085,
      "ĠEveryday": 6086,
      "Ġstays": 6087,
      "Ġlistens": 6088,
      "Ġwherever": 6089,
      "ĠJosh": 6090,
      "Ġrip": 6091,
      "Ġrule": 6092,
      "Ġreads": 6093,
      "Ġswims": 6094,
      "Ġfairies": 6095,
      "Ġwondering": 6096,
      "Ġsteady": 6097,
      "Ġreaching": 6098,
      "Ġbars": 6099,
      "Ġscreaming": 6100,
      "Ġshrug": 6101,
      "Ġparties": 6102,
      "Ġsparkles": 6103,
      "ĠBeep": 6104,
      "Ġzooming": 6105,
      "Ġmushrooms": 6106,
      "ivity": 6107,
      "Ġsquares": 6108,
      "Ġcandies": 6109,
      "Ġbatteries": 6110,
      "Ġdelivered": 6111,
      "Ġsurface": 6112,
      "Ġornaments": 6113,
      "Ġawesome": 6114,
      "ĠTwo": 6115,
      "Ġcomfy": 6116,
      "Ġburst": 6117,
      "Ġthrilled": 6118,
      "Ġreflection": 6119,
      "Ġreluctantly": 6120,
      "Ġentrance": 6121,
      "Hold": 6122,
      "Tiny": 6123,
      "Zoom": 6124,
      "mies": 6125,
      "oke": 6126,
      "rs": 6127,
      "wh": 6128,
      "wk": 6129,
      "ĠTree": 6130,
      "ĠTiti": 6131,
      "Ġdot": 6132,
      "onn": 6133,
      "Ġhawk": 6134,
      "igi": 6135,
      "Ġplenty": 6136,
      "Ġbelly": 6137,
      "ĠBree": 6138,
      "ĠMe": 6139,
      "akes": 6140,
      "?\",": 6141,
      "ĠJessica": 6142,
      "ĠJeff": 6143,
      "Ġdownstairs": 6144,
      "Ġyourselves": 6145,
      "Ġdecision": 6146,
      "ĠDid": 6147,
      "Ġpose": 6148,
      "Ġpossible": 6149,
      "andas": 6150,
      "Ġusual": 6151,
      "Ġtalent": 6152,
      "Ġbrand": 6153,
      "Ġworker": 6154,
      "Ġowners": 6155,
      "Ġsitu": 6156,
      "Ġpennies": 6157,
      "Ġpatience": 6158,
      "Johnny": 6159,
      "oline": 6160,
      "Ġinviting": 6161,
      "Stay": 6162,
      "Ġsalty": 6163,
      "ĠBehind": 6164,
      "Ġglowed": 6165,
      "ĠTrust": 6166,
      "guing": 6167,
      "Ġtowels": 6168,
      "Ġpresents": 6169,
      "Ġmovies": 6170,
      "Ġreminder": 6171,
      "Ġplanets": 6172,
      "Ġcopy": 6173,
      "Ġbegin": 6174,
      "ĠRollie": 6175,
      "ĠJulie": 6176,
      "Ġbalancing": 6177,
      "Ġcompleted": 6178,
      "Ġfascin": 6179,
      "For": 6180,
      "Our": 6181,
      "Polly": 6182,
      "Rob": 6183,
      "Some": 6184,
      "cl": 6185,
      "eah": 6186,
      "fl": 6187,
      "sm": 6188,
      "son": 6189,
      "you": 6190,
      "Ġbare": 6191,
      "ĠTara": 6192,
      "ĠTurtle": 6193,
      "Ġdam": 6194,
      "Ġpandas": 6195,
      "Ġwasted": 6196,
      "omb": 6197,
      "arter": 6198,
      "ĠSorry": 6199,
      "Ġrotten": 6200,
      "Ġstool": 6201,
      "ados": 6202,
      "Ġsmarter": 6203,
      "urry": 6204,
      "Ġgoals": 6205,
      "Ġroses": 6206,
      "ĠWise": 6207,
      "ĠWatch": 6208,
      "ĠJessie": 6209,
      "iece": 6210,
      "uckily": 6211,
      "ĠDot": 6212,
      "Ġvent": 6213,
      "Ġvines": 6214,
      "Ġparked": 6215,
      "oys": 6216,
      "Ġcracked": 6217,
      "Ġcuriosity": 6218,
      "Ġruining": 6219,
      "Ġarguing": 6220,
      "Ġwinked": 6221,
      "Ġcreation": 6222,
      "Ġcontest": 6223,
      "ĠZeb": 6224,
      "Ġcreating": 6225,
      "Ġdragons": 6226,
      "ĠBlinky": 6227,
      "Ġrecipe": 6228,
      "Ġpockets": 6229,
      "Ġmatching": 6230,
      "ĠBeaky": 6231,
      "Ġrubs": 6232,
      "Ġprotecting": 6233,
      "Ġlogs": 6234,
      "Ġleader": 6235,
      "Ġpencils": 6236,
      "ĠBrownie": 6237,
      "Ġtires": 6238,
      "Ġpumpkins": 6239,
      "Ġcompetition": 6240,
      "ĠRobby": 6241,
      "...\"": 6242,
      "Ġinsist": 6243,
      "Chirpy": 6244,
      "ĠBeef": 6245,
      "ĠRover": 6246,
      "Ġguys": 6247,
      "Ġincluded": 6248,
      "hopper": 6249,
      "Achoo": 6250,
      "Yeah": 6251,
      "cus": 6252,
      "dies": 6253,
      "go": 6254,
      "loe": 6255,
      "Ġ1": 6256,
      "Ġtim": 6257,
      "Ġbunch": 6258,
      "Ġhitting": 6259,
      "ĠTony": 6260,
      "Ġdipped": 6261,
      "Ġpoop": 6262,
      "Ġma": 6263,
      "Ġyouth": 6264,
      "ĠLion": 6265,
      "adly": 6266,
      "ĠBall": 6267,
      "Ġweren": 6268,
      "Ġmane": 6269,
      "Ġspat": 6270,
      "ĠWant": 6271,
      "Ġhomework": 6272,
      "ĠJune": 6273,
      "Ġlearns": 6274,
      "ishy": 6275,
      "Ġchat": 6276,
      "Ġchanging": 6277,
      "ĠDr": 6278,
      "rol": 6279,
      "Ġkeeper": 6280,
      "Ġbedtime": 6281,
      "Ġuses": 6282,
      "Ġyells": 6283,
      "ĠGet": 6284,
      "ĠGogo": 6285,
      "ĠGigi": 6286,
      "Ġrealize": 6287,
      "Ġsweat": 6288,
      "Joey": 6289,
      "Ġwears": 6290,
      "Ġnaps": 6291,
      "ĠToot": 6292,
      "Ġpointy": 6293,
      "ĠZoe": 6294,
      "Ġkittens": 6295,
      "Ġprotected": 6296,
      "izzie": 6297,
      "Ġgiggling": 6298,
      "Ġleading": 6299,
      "Meow": 6300,
      "Ġavocados": 6301,
      "Ġrescued": 6302,
      "Ġargued": 6303,
      "Ġsights": 6304,
      "Ġrotting": 6305,
      "Ġknocks": 6306,
      "Ġknights": 6307,
      "Ġtwirling": 6308,
      "Ġrepeated": 6309,
      "ĠSusan": 6310,
      "ĠRudy": 6311,
      "Ġspikes": 6312,
      "ĠTwinkle": 6313,
      "ĠSky": 6314,
      "Ġprettier": 6315,
      "ĠMixy": 6316,
      "ĠChewy": 6317,
      "Ġpuppet": 6318,
      "ibbit": 6319,
      "Ġinstructions": 6320,
      "',": 6321,
      "George": 6322,
      "Kiki": 6323,
      "Mar": 6324,
      "Oops": 6325,
      "Run": 6326,
      "lay": 6327,
      "njoy": 6328,
      "sses": 6329,
      "ĠĠ": 6330,
      "Ġwed": 6331,
      "Ġbomb": 6332,
      "Ġdied": 6333,
      "ido": 6334,
      "att": 6335,
      "ĠSc": 6336,
      "Ġplayers": 6337,
      "Ġstern": 6338,
      "seek": 6339,
      "ĠBug": 6340,
      "ĠMatch": 6341,
      "Ġsoaring": 6342,
      "Ġann": 6343,
      "ĠAbby": 6344,
      "Ġscoop": 6345,
      "Ġsculp": 6346,
      "Ġexa": 6347,
      "ĠJamie": 6348,
      "ĠFor": 6349,
      "Ġpeaches": 6350,
      "Ġgrandp": 6351,
      "ĠCD": 6352,
      "Ġafterwards": 6353,
      "ĠKeep": 6354,
      "Ġsticking": 6355,
      "Ġrubbing": 6356,
      "Ġpretends": 6357,
      "Ġreplaced": 6358,
      "avi": 6359,
      "Ġsnowfl": 6360,
      "Ġpots": 6361,
      "Ġstartled": 6362,
      "Ġshrinking": 6363,
      "Ġpatiently": 6364,
      "Ġentire": 6365,
      "Ġpouring": 6366,
      "Ġfeeding": 6367,
      "Ġsunflowers": 6368,
      "Ġblows": 6369,
      "Ġrefres": 6370,
      "Ġlibrarian": 6371,
      "Ġtunnels": 6372,
      "Ġloading": 6373,
      "Ġcomplained": 6374,
      "Ġmasks": 6375,
      "Ġribbons": 6376,
      "Ġweapons": 6377,
      "Charlie": 6378,
      "Ġintroduc": 6379,
      "Ġpaddle": 6380,
      "Ġscratches": 6381,
      "ĠJudge": 6382,
      "ĠSquirrel": 6383,
      "Ġbarely": 6384,
      "Ġsculpture": 6385,
      "Ġgrandparent": 6386,
      "James": 6387,
      "Time": 6388,
      "bl": 6389,
      "bly": 6390,
      "bric": 6391,
      "ibi": 6392,
      "sure": 6393,
      "tuce": 6394,
      "worm": 6395,
      "Ġfara": 6396,
      "Ġcent": 6397,
      "Ġcough": 6398,
      "Ġcaut": 6399,
      "Ġcott": 6400,
      "Ġgue": 6401,
      "ira": 6402,
      "Ġthorn": 6403,
      "Ġonwards": 6404,
      "Ġlied": 6405,
      "Ġdod": 6406,
      "Ġreason": 6407,
      "Ġclick": 6408,
      "Ġscales": 6409,
      "Ġfabric": 6410,
      "Ġswooped": 6411,
      "isten": 6412,
      "Ġtraded": 6413,
      "Ġhowever": 6414,
      "Ġlettuce": 6415,
      "Thanks": 6416,
      "Ġbadge": 6417,
      "ĠKate": 6418,
      "ĠKids": 6419,
      "Ġquacked": 6420,
      "ĠPaws": 6421,
      "Ġyelling": 6422,
      "Ġmonth": 6423,
      "Ġhides": 6424,
      "Ġtallest": 6425,
      "Ġcrumb": 6426,
      "Ġslower": 6427,
      "Ġaccom": 6428,
      "Ġbuying": 6429,
      "angled": 6430,
      "Ġvalued": 6431,
      "ĠAnne": 6432,
      "Ġspeaking": 6433,
      "Ġforgets": 6434,
      "Ġavo": 6435,
      "uggles": 6436,
      "Andy": 6437,
      "Ġwishing": 6438,
      "Ġtoaster": 6439,
      "Ġsafer": 6440,
      "Ġtickled": 6441,
      "Ġdestination": 6442,
      "Ġteamwork": 6443,
      "Ġpowers": 6444,
      "Ġcurly": 6445,
      "Ġapologized": 6446,
      "ĠQuick": 6447,
      "Ġfirefighters": 6448,
      "Ġchallenge": 6449,
      "Susie": 6450,
      "Ġfascinated": 6451,
      "Ġwedding": 6452,
      "Ġfaraway": 6453,
      "Ġguest": 6454,
      "Ġaccompl": 6455,
      "?'": 6456,
      "Danny": 6457,
      "Exc": 6458,
      "Get": 6459,
      "Pete": 6460,
      "hi": 6461,
      "jo": 6462,
      "uzz": 6463,
      "vy": 6464,
      "Ġwins": 6465,
      "Ġtoss": 6466,
      "itched": 6467,
      "Ġlimes": 6468,
      "Ġden": 6469,
      "Ġpins": 6470,
      "Ġmaker": 6471,
      "isdom": 6472,
      "Ġnur": 6473,
      "rious": 6474,
      "Ġbeaver": 6475,
      "Ġyum": 6476,
      "Ġopp": 6477,
      "Ġboom": 6478,
      "Ġleap": 6479,
      "Ġbackwards": 6480,
      "Ġscri": 6481,
      "ĠWoo": 6482,
      "Ġflutter": 6483,
      "Ġprop": 6484,
      "Ġchuck": 6485,
      "Ġchips": 6486,
      "Thomas": 6487,
      "Ġwhose": 6488,
      "Ġunited": 6489,
      "ĠEnjoy": 6490,
      "Ġtwice": 6491,
      "ctions": 6492,
      "ĠPrin": 6493,
      "Ġcracks": 6494,
      "Ġgrasshopper": 6495,
      "Ġcloses": 6496,
      "Ġslowed": 6497,
      "Ġcreams": 6498,
      "Ġmarked": 6499,
      "Ġnapkins": 6500,
      "Ġdoctors": 6501,
      "ĠBlink": 6502,
      "Ġdeser": 6503,
      "Ġseeker": 6504,
      "ĠCatty": 6505,
      "Ġsupplies": 6506,
      "Ġshirts": 6507,
      "ĠTruck": 6508,
      "Ġguns": 6509,
      "Ġtwisting": 6510,
      "However": 6511,
      "Ġscru": 6512,
      "Ġhealed": 6513,
      "ĠSnuggles": 6514,
      "ĠShadow": 6515,
      "Ġsymbols": 6516,
      "Ġpedals": 6517,
      "Ġstomped": 6518,
      "Ġbuzzed": 6519,
      "ĠUnfortunately": 6520,
      "Shh": 6521,
      "Ġchirping": 6522,
      "Ġapplauded": 6523,
      "neath": 6524,
      "Ġinstrum": 6525,
      "Buzz": 6526,
      "Doggy": 6527,
      "Unfortunately": 6528,
      "Ġdirections": 6529,
      "Ġcustomer": 6530,
      "Ġresponsible": 6531,
      "Ġexactly": 6532,
      "Ġintroduced": 6533,
      "'.\"": 6534,
      "Bad": 6535,
      "Baby": 6536,
      "Cl": 6537,
      "Jazz": 6538,
      "Pipp": 6539,
      "Peter": 6540,
      "Ro": 6541,
      "Rex": 6542,
      "Teddy": 6543,
      "au": 6544,
      "but": 6545,
      "crow": 6546,
      "fit": 6547,
      "yd": 6548,
      "yan": 6549,
      "itely": 6550,
      "Ġdet": 6551,
      "Ġcause": 6552,
      "Ġpout": 6553,
      "arth": 6554,
      "lled": 6555,
      "iding": 6556,
      "atty": 6557,
      "anted": 6558,
      "anie": 6559,
      "Ġthud": 6560,
      "ces": 6561,
      "ĠLuke": 6562,
      "ades": 6563,
      "ĠBibi": 6564,
      "ĠMic": 6565,
      "Ġneither": 6566,
      "ecked": 6567,
      "Ġoutfit": 6568,
      "aren": 6569,
      "opes": 6570,
      "Ġeveryday": 6571,
      "ĠJay": 6572,
      "ĠFido": 6573,
      "Ġchop": 6574,
      "Ġposes": 6575,
      "Ġunsure": 6576,
      "Ġtwinkle": 6577,
      "Ġcomm": 6578,
      "Ġfarther": 6579,
      "emma": 6580,
      "Ġsquaw": 6581,
      "Ġuntied": 6582,
      "Ġworkers": 6583,
      "Ġtables": 6584,
      "Ġcuts": 6585,
      "Ġprinting": 6586,
      "Ġlessons": 6587,
      "ĠZero": 6588,
      "Ġsailors": 6589,
      "Ġcreativity": 6590,
      "Ġrobots": 6591,
      "Ġcovers": 6592,
      "Ġpracticing": 6593,
      "ĠStop": 6594,
      "Ġcheering": 6595,
      "Ġscarecrow": 6596,
      "Ġexamined": 6597,
      "Ġfigured": 6598,
      "affes": 6599,
      "Ġpigeons": 6600,
      "Ġencourag": 6601,
      "Ġfuzzy": 6602,
      "Ġvideos": 6603,
      "Ġpreparing": 6604,
      "Ġgiraffes": 6605,
      "Ġgrowls": 6606,
      "Ġcomplaining": 6607,
      "Ġcrowd": 6608,
      "Ġnightmares": 6609,
      "Ġfroze": 6610,
      "Ġcubs": 6611,
      "Ġslammed": 6612,
      "Ġsituation": 6613,
      "Ġventured": 6614,
      "aura": 6615,
      "Bet": 6616,
      "Days": 6617,
      "Out": 6618,
      "Sunny": 6619,
      "Sophie": 6620,
      "eath": 6621,
      "ha": 6622,
      "len": 6623,
      "pite": 6624,
      "pril": 6625,
      "rup": 6626,
      "uing": 6627,
      "ĠĊĠ": 6628,
      "Ġsense": 6629,
      "Ġcous": 6630,
      "Ġpecked": 6631,
      "ering": 6632,
      "Ġgee": 6633,
      "ĠSl": 6634,
      "amb": 6635,
      "ammy": 6636,
      "pples": 6637,
      "ĠIzzy": 6638,
      "Ġstung": 6639,
      "Ġstumble": 6640,
      "allow": 6641,
      "ĠLizzie": 6642,
      "ĠMilly": 6643,
      "Ġkings": 6644,
      "ĠAnt": 6645,
      "indr": 6646,
      "Ġstarfish": 6647,
      "Ġfact": 6648,
      "ĠJilly": 6649,
      "Ġknowled": 6650,
      "Ġunp": 6651,
      "ĠEarth": 6652,
      "Ġneedles": 6653,
      "ĠCow": 6654,
      "ĠCindy": 6655,
      "Ġunderneath": 6656,
      "Ġgranted": 6657,
      "ĠKit": 6658,
      "Ġbravery": 6659,
      "ĠPuffy": 6660,
      "though": 6661,
      "Ġadult": 6662,
      "ĠRe": 6663,
      "Ġsatis": 6664,
      "Ġjoked": 6665,
      "ĠDoctor": 6666,
      "Ġfires": 6667,
      "Ġruin": 6668,
      "Ġplanning": 6669,
      "ĠOp": 6670,
      "Ġbiting": 6671,
      "Ġnests": 6672,
      "Ġcontrol": 6673,
      "Ġtighter": 6674,
      "ences": 6675,
      "Ġbaths": 6676,
      "Ġpastries": 6677,
      "ĠChicky": 6678,
      "ĠChrist": 6679,
      "Ġcrabs": 6680,
      "Ġmints": 6681,
      "Ġraindr": 6682,
      "Ġbeneath": 6683,
      "Ġpaths": 6684,
      "Beep": 6685,
      "Ġforgetting": 6686,
      "Ġactiv": 6687,
      "Ġsharks": 6688,
      "Ġgroups": 6689,
      "ĠHowever": 6690,
      "Ġguessing": 6691,
      "Ġprayer": 6692,
      "Ġwires": 6693,
      "Ġinsects": 6694,
      "Ġrewarded": 6695,
      "Ġimproved": 6696,
      "Ġlollipops": 6697,
      "Ġenvelopes": 6698,
      "Ġsurfboard": 6699,
      "Ġprovided": 6700,
      "ĠRufus": 6701,
      "Ġrecommended": 6702,
      "ĠYesterday": 6703,
      "Ġhonked": 6704,
      "Annie": 6705,
      "Ġpancakes": 6706,
      "ĠLouise": 6707,
      "ĠJanet": 6708,
      "Ġrusty": 6709,
      "ĠWhistle": 6710,
      "Follow": 6711,
      "Ruby": 6712,
      "Ġpaddled": 6713,
      "Ġfirmly": 6714,
      "Ġtimer": 6715,
      "Ġgeese": 6716,
      "Ġknowledge": 6717,
      "Am": 6718,
      "Big": 6719,
      "Co": 6720,
      "Tweet": 6721,
      "Watch": 6722,
      "iel": 6723,
      "oll": 6724,
      "Ġtying": 6725,
      "Ġsy": 6726,
      "Ġsings": 6727,
      "eds": 6728,
      "Ġfreed": 6729,
      "int": 6730,
      "Ġdar": 6731,
      "Ġcoop": 6732,
      "Ġpuck": 6733,
      "aye": 6734,
      "ayla": 6735,
      "atched": 6736,
      "ening": 6737,
      "ĠHug": 6738,
      "ĠHenny": 6739,
      "Ġrising": 6740,
      "Ġnotes": 6741,
      "eliable": 6742,
      "ĠWisdom": 6743,
      "Ġalien": 6744,
      "Ġgotten": 6745,
      "ĠDizzy": 6746,
      "âĢĶ": 6747,
      "Ġgreet": 6748,
      "ĠElle": 6749,
      "Ġforehead": 6750,
      "Ġgardener": 6751,
      "Ġshoulders": 6752,
      "Ġrainco": 6753,
      "ĠPine": 6754,
      "Ġstole": 6755,
      "Ġstolen": 6756,
      "Ġhates": 6757,
      "Ġdeal": 6758,
      "Ġwritten": 6759,
      "Ġkites": 6760,
      "Ġremembering": 6761,
      "ĠDodo": 6762,
      "Ġhider": 6763,
      "Ġcrept": 6764,
      "Josh": 6765,
      "Ġcounts": 6766,
      "Ġairpl": 6767,
      "Ġpassen": 6768,
      "awn": 6769,
      "Ġkicks": 6770,
      "Ġspraying": 6771,
      "Ġprincesses": 6772,
      "Ġdecorating": 6773,
      "Ġclowns": 6774,
      "Ġtwists": 6775,
      "Ġquarreled": 6776,
      "Ġperformed": 6777,
      "Ġfigures": 6778,
      "Ġcompletely": 6779,
      "Ġsniffs": 6780,
      "Ġtickets": 6781,
      "Grace": 6782,
      "Quack": 6783,
      "Ġlipstick": 6784,
      "ĠPatty": 6785,
      "Ġzigzags": 6786,
      "Ġconfident": 6787,
      "Buzzy": 6788,
      "Ġchefs": 6789,
      "Ġfirefighter": 6790,
      "rrr": 6791,
      "Ġwider": 6792,
      "Ġforgiving": 6793,
      "Ġdamage": 6794,
      "Ġscrubbed": 6795,
      "Ġencouraging": 6796,
      "Ġraindrops": 6797,
      "Ġactivities": 6798,
      "Ġraincoat": 6799,
      "Aunt": 6800,
      "Bill": 6801,
      "Dan": 6802,
      "Lulu": 6803,
      "Luckily": 6804,
      "Millie": 6805,
      "Ribbit": 6806,
      "Vroom": 6807,
      "Whee": 6808,
      "mas": 6809,
      "ossible": 6810,
      "prin": 6811,
      "rink": 6812,
      "rough": 6813,
      "Ġties": 6814,
      "Ġtangled": 6815,
      "Ġwow": 6816,
      "ĠTry": 6817,
      "rey": 6818,
      "ition": 6819,
      "Ġmes": 6820,
      "Ġnine": 6821,
      "imon": 6822,
      "ingo": 6823,
      "ĠSure": 6824,
      "ĠLaura": 6825,
      "ads": 6826,
      "ĠBust": 6827,
      "ĠBoom": 6828,
      "ĠBeth": 6829,
      "ently": 6830,
      "Ġsobbed": 6831,
      "Ġshelves": 6832,
      "Ġbodies": 6833,
      "Ġlosing": 6834,
      "illed": 6835,
      "rap": 6836,
      "Ġlever": 6837,
      "agic": 6838,
      "agull": 6839,
      "Ġsomebody": 6840,
      "Ġflas": 6841,
      "ucas": 6842,
      "ĠDina": 6843,
      "Ġvowed": 6844,
      "Ġpeas": 6845,
      "ĠThose": 6846,
      "bbly": 6847,
      "Noah": 6848,
      "Ġrainy": 6849,
      "Ġimpossible": 6850,
      "Ġbehavi": 6851,
      "Ġraces": 6852,
      "ĠGlow": 6853,
      "Ġcolder": 6854,
      "Ġworrying": 6855,
      "Ġdarkness": 6856,
      "Ġpromises": 6857,
      "Ġprinter": 6858,
      "Ġperched": 6859,
      "Ġcloudy": 6860,
      "Ġmission": 6861,
      "Ġfilling": 6862,
      "Ġrivers": 6863,
      "ĠChloe": 6864,
      "Ġdesert": 6865,
      "Ġpans": 6866,
      "ophia": 6867,
      "ĠNina": 6868,
      "Ġsupported": 6869,
      "Ġsqueal": 6870,
      "Ġrelief": 6871,
      "Ġpresses": 6872,
      "Ġmiller": 6873,
      "Ġarrows": 6874,
      "Ġwiping": 6875,
      "Ġzebras": 6876,
      "Ġbumps": 6877,
      "Ġcushions": 6878,
      "Ġscooters": 6879,
      "Ġblinking": 6880,
      "Ġroots": 6881,
      "Ġlabels": 6882,
      "Ġlending": 6883,
      "Ġshovels": 6884,
      "Ġpeeking": 6885,
      "ĠSparky": 6886,
      "Ġhumans": 6887,
      "Ġcuddly": 6888,
      "Ġincreased": 6889,
      "Ġwiggled": 6890,
      "ĠFlutter": 6891,
      "Ġsports": 6892,
      "Ġwarnings": 6893,
      "Ġneighbourhood": 6894,
      "Ġcheeks": 6895,
      "Ġrequested": 6896,
      "Ġincluding": 6897,
      "ĠGrumpy": 6898,
      "Ġachieve": 6899,
      "ĠBarky": 6900,
      "ĠWiggly": 6901,
      "Ġcrumbs": 6902,
      "Ġavoid": 6903,
      "Excuse": 6904,
      "Ġchuckled": 6905,
      "Ġunpacked": 6906,
      "ĠChristmas": 6907,
      "Ġsyrup": 6908,
      "Ġpassengers": 6909,
      "ĠBuster": 6910,
      "Great": 6911,
      "Henry": 6912,
      "Penny": 6913,
      "Wake": 6914,
      "bu": 6915,
      "ca": 6916,
      "eve": 6917,
      "eal": 6918,
      "hog": 6919,
      "jam": 6920,
      "ners": 6921,
      "oss": 6922,
      "ĠOnce": 6923,
      "Ġtar": 6924,
      "Ġtig": 6925,
      "Ġsway": 6926,
      "Ġbak": 6927,
      "ouch": 6928,
      "Ġlower": 6929,
      "Ġcor": 6930,
      "Ġpuff": 6931,
      "eries": 6932,
      "aron": 6933,
      "atur": 6934,
      "atie": 6935,
      "ĠSadly": 6936,
      "anes": 6937,
      "ancy": 6938,
      "Ġbeam": 6939,
      "Ġwithin": 6940,
      "Ġrus": 6941,
      "ĠInd": 6942,
      "sequ": 6943,
      "rain": 6944,
      "Ġseven": 6945,
      "ecca": 6946,
      "ellie": 6947,
      "ĠFe": 6948,
      "ĠFriends": 6949,
      "abby": 6950,
      "ept": 6951,
      "Ġswept": 6952,
      "Ġfeast": 6953,
      "ĠDay": 6954,
      "Ġsurprising": 6955,
      "ĠCara": 6956,
      "Ġusually": 6957,
      "Momma": 6958,
      "Ġsnatched": 6959,
      "Ġends": 6960,
      "izon": 6961,
      "Ġuntie": 6962,
      "ĠPr": 6963,
      "ĠPup": 6964,
      "ĠRina": 6965,
      "Ġexplo": 6966,
      "Ġbehaving": 6967,
      "Ġwrist": 6968,
      "Ġconn": 6969,
      "Ġconsequ": 6970,
      "ĠJackie": 6971,
      "Ġrestored": 6972,
      "Ġhotter": 6973,
      "Ġswimmer": 6974,
      "ĠOkay": 6975,
      "ĠOther": 6976,
      "eek": 6977,
      "Ġbits": 6978,
      "Ġpens": 6979,
      "Ġjobs": 6980,
      "Ġhorizon": 6981,
      "Ġphot": 6982,
      "Ġsparks": 6983,
      "Ġshaped": 6984,
      "toed": 6985,
      "Ġinterested": 6986,
      "Ġdived": 6987,
      "Ġlifts": 6988,
      "ĠStay": 6989,
      "Ġpoliceman": 6990,
      "Ġseller": 6991,
      "Ġwandering": 6992,
      "Ġrecording": 6993,
      "ĠUp": 6994,
      "Ġscattering": 6995,
      "Ġhedgehog": 6996,
      "ĠRobo": 6997,
      "Ġshivered": 6998,
      "Ġgears": 6999,
      "Ġsending": 7000,
      "Ġcoloured": 7001,
      "Ġgrowling": 7002,
      "Ġbasement": 7003,
      "Ġtiptoed": 7004,
      "Ġregretted": 7005,
      "Ġsibl": 7006,
      "Ġwobble": 7007,
      "Ġseconds": 7008,
      "ĠGoodbye": 7009,
      "Ġconfl": 7010,
      "Ġcubes": 7011,
      "Ġbalanced": 7012,
      "Uncle": 7013,
      "Ġdirection": 7014,
      "ĠAmanda": 7015,
      "Ġdots": 7016,
      "Ġbeginning": 7017,
      "Ġsweaters": 7018,
      "Ġcautious": 7019,
      "ĠWooly": 7020,
      "ĠPrincess": 7021,
      "Ġcooper": 7022,
      "Ġtarget": 7023,
      "Ġtigers": 7024,
      "Ġconsequences": 7025,
      "Ġsiblings": 7026,
      "Bear": 7027,
      "Bang": 7028,
      "Ellie": 7029,
      "Lilly": 7030,
      "Pe": 7031,
      "Tw": 7032,
      "aired": 7033,
      "bird": 7034,
      "bie": 7035,
      "eed": 7036,
      "hanie": 7037,
      "iar": 7038,
      "ls": 7039,
      "ody": 7040,
      "ollie": 7041,
      "yes": 7042,
      "Ġ2": 7043,
      "Ġtune": 7044,
      "Ġast": 7045,
      "Ġaimed": 7046,
      "Ġbully": 7047,
      "Ġbumpy": 7048,
      "inch": 7049,
      "Ġlamb": 7050,
      "Ġda": 7051,
      "Ġcoup": 7052,
      "Ġheav": 7053,
      "llas": 7054,
      "ĠSw": 7055,
      "ans": 7056,
      "anne": 7057,
      "orman": 7058,
      "ĠHoney": 7059,
      "vered": 7060,
      "ooed": 7061,
      "Ġech": 7062,
      "Ġyounger": 7063,
      "ĠBirthday": 7064,
      "ĠBye": 7065,
      "ĠMop": 7066,
      "ĠApril": 7067,
      "inda": 7068,
      "Ġfaced": 7069,
      "ellow": 7070,
      "Ġnoses": 7071,
      "Ġgoodnight": 7072,
      "Ġcoach": 7073,
      "Ġranger": 7074,
      "ĠJet": 7075,
      "ĠFaye": 7076,
      "ephanie": 7077,
      "ives": 7078,
      "ĠDilly": 7079,
      "Ġunw": 7080,
      "Ġtramp": 7081,
      "ĠCar": 7082,
      "Ġtwinkled": 7083,
      "Ġchecks": 7084,
      "bbled": 7085,
      "Ġglued": 7086,
      "ĠKelly": 7087,
      "ails": 7088,
      "Ġcolored": 7089,
      "Ġsquishy": 7090,
      "Ġstopping": 7091,
      "ĠRyan": 7092,
      "ĠReliable": 7093,
      "Ġhearing": 7094,
      "Ġpajam": 7095,
      "ĠGary": 7096,
      "Ġconc": 7097,
      "Ġconv": 7098,
      "athy": 7099,
      "Ġsweetest": 7100,
      "Ġdancers": 7101,
      "Ġsmelling": 7102,
      "Ġlighter": 7103,
      "Ġcupcake": 7104,
      "Ġperforman": 7105,
      "Ġqueens": 7106,
      "Ġsecure": 7107,
      "Ġguide": 7108,
      "Ġpiggy": 7109,
      "Ġcowb": 7110,
      "appear": 7111,
      "Ġstands": 7112,
      "Ġmarkers": 7113,
      "Ġdrivers": 7114,
      "Ġexpress": 7115,
      "ĠNice": 7116,
      "Ġjets": 7117,
      "Ġsolut": 7118,
      "Ġwisely": 7119,
      "Ġcelebration": 7120,
      "Ġumbrellas": 7121,
      "Ġblooming": 7122,
      "Ġleads": 7123,
      "Ġrelaxing": 7124,
      "ĠNoah": 7125,
      "Ġpresented": 7126,
      "Ġleaning": 7127,
      "Ġtricky": 7128,
      "Ġdesigned": 7129,
      "Ġloops": 7130,
      "Ġrepaired": 7131,
      "Ġpleasure": 7132,
      "ĠâĢĶ": 7133,
      "ĠâĢĺ": 7134,
      "Ġpunishment": 7135,
      "Ġslips": 7136,
      "Ġgroceries": 7137,
      "Ġzipping": 7138,
      "Ġwiggly": 7139,
      "Ġpedaled": 7140,
      "Ġpurr": 7141,
      "ĠIsn": 7142,
      "Ġlungs": 7143,
      "Ġsewed": 7144,
      "Frog": 7145,
      "Ġwounds": 7146,
      "onnie": 7147,
      "Ġsnowflakes": 7148,
      "Ġgrandparents": 7149,
      "Ġdodged": 7150,
      "Ġnurses": 7151,
      "Ġdeserve": 7152,
      "Betty": 7153,
      "Ġairplane": 7154,
      "Ġbakery": 7155,
      "Ġconflict": 7156,
      "Ġcouple": 7157,
      "Ġecho": 7158,
      "Ġtrampoline": 7159,
      "Ġpajamas": 7160,
      "?!\"": 7161,
      "Claire": 7162,
      "Dear": 7163,
      "Elly": 7164,
      "Like": 7165,
      "May": 7166,
      "Maggie": 7167,
      "Rachel": 7168,
      "Sn": 7169,
      "father": 7170,
      "kids": 7171,
      "rat": 7172,
      "the": 7173,
      "uppy": 7174,
      "urious": 7175,
      "zoom": 7176,
      "Ġtapped": 7177,
      "Ġais": 7178,
      "ĠTre": 7179,
      "rever": 7180,
      "Ġcert": 7181,
      "Ġmater": 7182,
      "Ġmerry": 7183,
      "erk": 7184,
      "onny": 7185,
      "Ġgle": 7186,
      "Ġrather": 7187,
      "Ġrisk": 7188,
      "ĠIvy": 7189,
      "Ġearn": 7190,
      "step": 7191,
      "ĠBingo": 7192,
      "ĠMous": 7193,
      "ĠMatt": 7194,
      "Ġmommies": 7195,
      "Ġshall": 7196,
      "Ġnect": 7197,
      "ĠAng": 7198,
      "icular": 7199,
      "Ġrods": 7200,
      "Ġoutdo": 7201,
      "Ġspong": 7202,
      "Ġspies": 7203,
      "Ġbackward": 7204,
      "ongrat": 7205,
      "Ġeverybody": 7206,
      "ĠFly": 7207,
      "Ġflapping": 7208,
      "Ġswirl": 7209,
      "Ġswoll": 7210,
      "Ġfever": 7211,
      "Ġchoo": 7212,
      "Ġchip": 7213,
      "Ġpeep": 7214,
      "inkling": 7215,
      "oga": 7216,
      "Ġmoat": 7217,
      "Ġthanking": 7218,
      "Ġstored": 7219,
      "Ġsnapping": 7220,
      "Ġbudge": 7221,
      "Ġglitt": 7222,
      "ĠInky": 7223,
      "Ġrains": 7224,
      "beep": 7225,
      "Ġfins": 7226,
      "Ġjoking": 7227,
      "Ġsinger": 7228,
      "Ġduckling": 7229,
      "ĠGemma": 7230,
      "Ġblocking": 7231,
      "athan": 7232,
      "ĠJacky": 7233,
      "Ġcuriously": 7234,
      "ĠOat": 7235,
      "Ġdripping": 7236,
      "Ġexplorers": 7237,
      "Ġsnowmen": 7238,
      "Ġrespected": 7239,
      "Ġpiglet": 7240,
      "Ġpassing": 7241,
      "!âĢĿ.": 7242,
      "Ġbathing": 7243,
      "Ġrobber": 7244,
      "brush": 7245,
      "Ġcourt": 7246,
      "Ġparticular": 7247,
      "Ġwarri": 7248,
      "Ġpuzzled": 7249,
      "Ġcloths": 7250,
      "Ġcircus": 7251,
      "Ġimagining": 7252,
      "Ġquestioned": 7253,
      "Ġlaying": 7254,
      "ĠWithout": 7255,
      "Ġscarves": 7256,
      "ĠSpring": 7257,
      "Ġminding": 7258,
      "Ġcelebrating": 7259,
      "Ġspreading": 7260,
      "Ġtaped": 7261,
      "Ġpraying": 7262,
      "Ġwipes": 7263,
      "Ġspeeding": 7264,
      "Ġdetermination": 7265,
      "Ġcombed": 7266,
      "Ġenthusiasm": 7267,
      "Always": 7268,
      "Ġpinching": 7269,
      "Ġweighs": 7270,
      "Ġmosquitoes": 7271,
      "Ġgrandfather": 7272,
      "Ġgrandkids": 7273,
      "Ġsuffering": 7274,
      "ĠFlora": 7275,
      "ĠMarie": 7276,
      "Ġinvitations": 7277,
      "ĠSteven": 7278,
      "Ġwobbly": 7279,
      "ĠCloud": 7280,
      "ĠClara": 7281,
      "Ġspits": 7282,
      "Ġflaps": 7283,
      "Ġinchworm": 7284,
      "Ġpupils": 7285,
      "Ġhesitated": 7286,
      "Ġpuppies": 7287,
      "Ġstroke": 7288,
      "Ġcustomers": 7289,
      "ĠAmber": 7290,
      "Ġflavors": 7291,
      "ĠCrabby": 7292,
      "ĠSean": 7293,
      "ĠDotty": 7294,
      "Maria": 7295,
      "Ġcotton": 7296,
      "Ġthorns": 7297,
      "Ġaccomplish": 7298,
      "ĠTruckie": 7299,
      "Ġinstruments": 7300,
      "Pippin": 7301,
      "Ġpouted": 7302,
      "Coco": 7303,
      "Ġfreedom": 7304,
      "prints": 7305,
      "Ġcorre": 7306,
      "Ġrushing": 7307,
      "Ġsolution": 7308,
      "reverse": 7309,
      "Ġmaterial": 7310,
      "ĠMousy": 7311,
      "Ġnectar": 7312,
      "ĠAngel": 7313,
      "Ġoutdoors": 7314,
      "Ġswollen": 7315,
      "Ab": 7316,
      "Alex": 7317,
      "Bug": 7318,
      "Harry": 7319,
      "Lena": 7320,
      "Olive": 7321,
      "Speedy": 7322,
      "ai": 7323,
      "bell": 7324,
      "fire": 7325,
      "mill": 7326,
      "oey": 7327,
      "vor": 7328,
      "vroom": 7329,
      "ĠYes": 7330,
      "Ġturt": 7331,
      "Ġtipped": 7332,
      "Ġtapping": 7333,
      "Ġaff": 7334,
      "Ġsill": 7335,
      "Ġtodd": 7336,
      "Ġhoo": 7337,
      "ĠTake": 7338,
      "itude": 7339,
      "Ġmashed": 7340,
      "Ġheight": 7341,
      "Ġnood": 7342,
      "immer": 7343,
      "onies": 7344,
      "Ġgross": 7345,
      "irley": 7346,
      "igger": 7347,
      "ilted": 7348,
      "Ġplucked": 7349,
      "utty": 7350,
      "Ġbeads": 7351,
      "cept": 7352,
      "ĠLaw": 7353,
      "Ġwee": 7354,
      "ading": 7355,
      "itted": 7356,
      "ĠManny": 7357,
      "els": 7358,
      "Ġseagull": 7359,
      "Ġclues": 7360,
      "Ġclerk": 7361,
      "Ġscra": 7362,
      "Ġscur": 7363,
      "Ġage": 7364,
      "Ġexha": 7365,
      "Ġcond": 7366,
      "ĠJones": 7367,
      "ĠFish": 7368,
      "Ġflames": 7369,
      "Ġblushed": 7370,
      "icker": 7371,
      "usted": 7372,
      "Ġposter": 7373,
      "Ġwatering": 7374,
      "Ġamong": 7375,
      "ĠCathy": 7376,
      "ĠEverybody": 7377,
      "ortun": 7378,
      "Ġdoorbell": 7379,
      "Ġovercome": 7380,
      "Ġforests": 7381,
      "ĠPh": 7382,
      "ĠPlay": 7383,
      "Ġbravest": 7384,
      "Ġfinal": 7385,
      "Ġwaiter": 7386,
      "Ġwrigg": 7387,
      "Ġtalks": 7388,
      "Ġheading": 7389,
      "Ġripe": 7390,
      "ĠAsh": 7391,
      "ĠJaney": 7392,
      "Ġgrows": 7393,
      "Ġmuscle": 7394,
      "artin": 7395,
      "ĠJohnson": 7396,
      "Ġunderstands": 7397,
      "ggy": 7398,
      "ĠZippy": 7399,
      "Ġpurpose": 7400,
      "Ġwrapping": 7401,
      "ĠOnly": 7402,
      "Ġbells": 7403,
      "Ġsource": 7404,
      "ments": 7405,
      "Ġrockets": 7406,
      "Andrew": 7407,
      "Ġdigs": 7408,
      "Ġeagle": 7409,
      "Ġmatters": 7410,
      "Ġcrowns": 7411,
      "Ġterrified": 7412,
      "Ġsneezing": 7413,
      "Ġadds": 7414,
      "Ġwraps": 7415,
      "Ġnecklaces": 7416,
      "Ġindeed": 7417,
      "erpiece": 7418,
      "Ġbracelets": 7419,
      "Ġperforming": 7420,
      "Ġsuits": 7421,
      "ĠRobert": 7422,
      "Ġspills": 7423,
      "Ġreversed": 7424,
      "Mrs": 7425,
      "ronaut": 7426,
      "Ġdesserts": 7427,
      "ĠRude": 7428,
      "Ġawoke": 7429,
      "Ġstudent": 7430,
      "Ġstudents": 7431,
      "Ġlanguages": 7432,
      "Ġcountryside": 7433,
      "ĠWhoever": 7434,
      "Ġsimply": 7435,
      "Ġbrushing": 7436,
      "Ġrespond": 7437,
      "ĠJulia": 7438,
      "ĠGreeny": 7439,
      "Ġrustling": 7440,
      "Ġachieved": 7441,
      "Ġseasons": 7442,
      "Ġmasterpiece": 7443,
      "Ġ10": 7444,
      "Ġannoy": 7445,
      "Ġrefreshed": 7446,
      "Ġguests": 7447,
      "Ġopportun": 7448,
      "Ġcousin": 7449,
      "Ġsatisfied": 7450,
      "Ġdarling": 7451,
      "aturday": 7452,
      "Ġastronaut": 7453,
      "Ġperformance": 7454,
      "Ġglee": 7455,
      "ongratul": 7456,
      "Ġaccomplishment": 7457,
      "Ġturtles": 7458,
      "Ġexhausted": 7459,
      "Abbie": 7460,
      "Bee": 7461,
      "Cindy": 7462,
      "Fifi": 7463,
      "Friends": 7464,
      "Gu": 7465,
      "Jump": 7466,
      "Listen": 7467,
      "Milly": 7468,
      "Put": 7469,
      "Sandy": 7470,
      "Splash": 7471,
      "Try": 7472,
      "Under": 7473,
      "Very": 7474,
      "cused": 7475,
      "liver": 7476,
      "mine": 7477,
      "no": 7478,
      "rant": 7479,
      "Ġtin": 7480,
      "Ġtuck": 7481,
      "hel": 7482,
      "Ġaim": 7483,
      "Ġaud": 7484,
      "Ġbless": 7485,
      "Ġhour": 7486,
      "Ġfries": 7487,
      "inct": 7488,
      "Ġlimp": 7489,
      "Ġdent": 7490,
      "Ġponies": 7491,
      "Ġmer": 7492,
      "Ġmate": 7493,
      "Ġnuzz": 7494,
      "onna": 7495,
      "Ġsan": 7496,
      "Ġgonna": 7497,
      "ĠSilly": 7498,
      "ĠSophia": 7499,
      "ĠSaturday": 7500,
      "aned": 7501,
      "river": 7502,
      "Ġyelp": 7503,
      "Ġonward": 7504,
      "allowed": 7505,
      "ĠLayla": 7506,
      "ĠLucas": 7507,
      "ĠLollie": 7508,
      "Ġweeds": 7509,
      "addy": 7510,
      "ĠBrain": 7511,
      "ĠMon": 7512,
      "ĠMouse": 7513,
      "ĠMine": 7514,
      "ĠMina": 7515,
      "Ġshown": 7516,
      "child": 7517,
      "Ġlocks": 7518,
      "Ġleast": 7519,
      "Ġknives": 7520,
      "Ġscient": 7521,
      "Ġscored": 7522,
      "Ġmeals": 7523,
      "Ġlaces": 7524,
      "ĠWilly": 7525,
      "obody": 7526,
      "Ġworn": 7527,
      "iles": 7528,
      "Ġflip": 7529,
      "Ġblush": 7530,
      "Ġblocked": 7531,
      "Ġwilling": 7532,
      "Ġswallowed": 7533,
      "using": 7534,
      "Ġcharge": 7535,
      "Those": 7536,
      "istory": 7537,
      "ĠDes": 7538,
      "uddles": 7539,
      "ĠEat": 7540,
      "Ġamount": 7541,
      "ĠCle": 7542,
      "ĠCuddles": 7543,
      "veness": 7544,
      "ĠWest": 7545,
      "romise": 7546,
      "Ġtwinkling": 7547,
      "Ġfocused": 7548,
      "Ġwindmill": 7549,
      "Ġcleaner": 7550,
      "Ġcheers": 7551,
      "ĠPick": 7552,
      "Ġdef": 7553,
      "Ġhandsome": 7554,
      "Ġsingle": 7555,
      "Ġwrinkled": 7556,
      "Ġcraft": 7557,
      "Ġsandy": 7558,
      "Ġtails": 7559,
      "Ġwoodcut": 7560,
      "Ġarr": 7561,
      "Ġarmy": 7562,
      "Ġexplorer": 7563,
      "Ġpotion": 7564,
      "Ġseawe": 7565,
      "ĠChirp": 7566,
      "Ġrobin": 7567,
      "Ġraising": 7568,
      "Ġstreets": 7569,
      "Ġfleas": 7570,
      "Ġwheelbar": 7571,
      "ĠNathan": 7572,
      "ĠNutty": 7573,
      "Ġfootprints": 7574,
      "Ġcalmed": 7575,
      "Ġlifting": 7576,
      "Ġtrusting": 7577,
      "Ġchocolates": 7578,
      "ĠStephanie": 7579,
      "Ġhumming": 7580,
      "Ġsqueak": 7581,
      "Ġdecoration": 7582,
      "ĠAlong": 7583,
      "Ġengines": 7584,
      "Ġstuffing": 7585,
      "Ġtriangles": 7586,
      "Ġpressing": 7587,
      "udrey": 7588,
      "Ġdestroying": 7589,
      "affle": 7590,
      "Ġgracefully": 7591,
      "Ġyawning": 7592,
      "Ġsilent": 7593,
      "ĠRobbie": 7594,
      "Ġvibr": 7595,
      "Ġrescuing": 7596,
      "Ġdelivering": 7597,
      "Ġdolphins": 7598,
      "Ġseparated": 7599,
      "ĠShirley": 7600,
      "Ġhallway": 7601,
      "Ġtwirls": 7602,
      "ĠOwly": 7603,
      "Ġgrandchild": 7604,
      "Ġmassages": 7605,
      "Ġfilms": 7606,
      "Ġbends": 7607,
      "Ġneatly": 7608,
      "ĠYet": 7609,
      "Ġsuperheroes": 7610,
      "Ġdemanding": 7611,
      "Ġchoices": 7612,
      "Ġexperien": 7613,
      "Ġfireflies": 7614,
      "ĠMoony": 7615,
      "ĠAbi": 7616,
      "ĠBoxy": 7617,
      "Ġcrashing": 7618,
      "Trust": 7619,
      "ĠNothing": 7620,
      "Ġwidened": 7621,
      "ĠWiggles": 7622,
      "Spike": 7623,
      "Ġtalented": 7624,
      "ĠBuggy": 7625,
      "Ġcenter": 7626,
      "Ġproperly": 7627,
      "Ġadults": 7628,
      "Ġflashing": 7629,
      "Ġsquealed": 7630,
      "Ġphotos": 7631,
      "Ġheavier": 7632,
      "Ġechoed": 7633,
      "Ġaisle": 7634,
      "Ġcorrectly": 7635,
      "Ġtoddler": 7636,
      "Ġscurried": 7637,
      "Guess": 7638,
      "Ġaudience": 7639,
      "Ġmatey": 7640,
      "Ġscientist": 7641,
      "Ġwoodcutter": 7642,
      "Ġseaweed": 7643,
      "Ġwheelbarrow": 7644,
      "Ġexperienced": 7645,
      "Adam": 7646,
      "By": 7647,
      "Bow": 7648,
      "Car": 7649,
      "Catch": 7650,
      "Hurry": 7651,
      "Jul": 7652,
      "Jerry": 7653,
      "Jamie": 7654,
      "More": 7655,
      "Mira": 7656,
      "Op": 7657,
      "Pat": 7658,
      "Pinky": 7659,
      "Red": 7660,
      "Rosie": 7661,
      "Sm": 7662,
      "Slow": 7663,
      "Zip": 7664,
      "aa": 7665,
      "bil": 7666,
      "band": 7667,
      "bage": 7668,
      "cted": 7669,
      "coon": 7670,
      "driver": 7671,
      "ean": 7672,
      "found": 7673,
      "fia": 7674,
      "hny": 7675,
      "hive": 7676,
      "ibil": 7677,
      "ju": 7678,
      "tle": 7679,
      "tock": 7680,
      "ĠĊ": 7681,
      "Ġicing": 7682,
      "Ġtilted": 7683,
      "Ġbam": 7684,
      "ĠTaking": 7685,
      "Ġwadd": 7686,
      "itches": 7687,
      "Ġdip": 7688,
      "Ġsale": 7689,
      "ĠSchool": 7690,
      "ĠSimon": 7691,
      "order": 7692,
      "ambled": 7693,
      "ĠHolly": 7694,
      "Ġthro": 7695,
      "igning": 7696,
      "ĠShelly": 7697,
      "Ġev": 7698,
      "Ġease": 7699,
      "Ġlies": 7700,
      "ĠBarry": 7701,
      "ĠMel": 7702,
      "ĠMake": 7703,
      "ĠMira": 7704,
      "Ġshin": 7705,
      "Ġsofter": 7706,
      "ching": 7707,
      "Ġreass": 7708,
      "icate": 7709,
      "ighting": 7710,
      "ĠJelly": 7711,
      "ĠJason": 7712,
      "ĠFle": 7713,
      "ĠFarm": 7714,
      "ĠFold": 7715,
      "ĠFighting": 7716,
      "Ġblown": 7717,
      "retty": 7718,
      "Ġswitched": 7719,
      "ĠDoug": 7720,
      "ĠDee": 7721,
      "âĢ¦": 7722,
      "Ġpeck": 7723,
      "ĠElderly": 7724,
      "ĠCandy": 7725,
      "ĠCube": 7726,
      "asta": 7727,
      "Ġwindy": 7728,
      "Ġcheated": 7729,
      "bbling": 7730,
      "ĠKaren": 7731,
      "ĠPinch": 7732,
      "azy": 7733,
      "ĠRuff": 7734,
      "ĠRolly": 7735,
      "Ġstorekeeper": 7736,
      "ĠJoanna": 7737,
      "Ġsleeps": 7738,
      "ĠDoes": 7739,
      "covered": 7740,
      "Ġdrawers": 7741,
      "Ġplans": 7742,
      "Ġcrops": 7743,
      "ĠOxy": 7744,
      "Ġache": 7745,
      "Ġdrifted": 7746,
      "Ġthroughout": 7747,
      "Ġsets": 7748,
      "Ġmarve": 7749,
      "rowave": 7750,
      "Ġmixture": 7751,
      "Ġpolitely": 7752,
      "Ġbeehive": 7753,
      "Ġvisits": 7754,
      "Ġattack": 7755,
      "Ġsails": 7756,
      "Ġshops": 7757,
      "Ġbenches": 7758,
      "Ġtouches": 7759,
      "Ġbows": 7760,
      "Ġdesper": 7761,
      "Ġdriveway": 7762,
      "Ġpanicked": 7763,
      "Steve": 7764,
      "ĠBeaver": 7765,
      "ĠNever": 7766,
      "ĠNancy": 7767,
      "ĠNobody": 7768,
      "Ġfootstep": 7769,
      "Ġtidying": 7770,
      "ĠAlarm": 7771,
      "Ġunlo": 7772,
      "Ġtested": 7773,
      "Ġmicrowave": 7774,
      "Ġexamining": 7775,
      "Ġghosts": 7776,
      "ĠPeep": 7777,
      "Ġstreamers": 7778,
      "Ġscrambled": 7779,
      "Ġhealing": 7780,
      "Ġhealth": 7781,
      "Ġaccidents": 7782,
      "Ġbicycles": 7783,
      "Ġrags": 7784,
      "Ġsheets": 7785,
      "Ġcampfire": 7786,
      "Alright": 7787,
      "Quick": 7788,
      "Child": 7789,
      "Ġcrowded": 7790,
      "Ġmusicians": 7791,
      "Ġsuffered": 7792,
      "Ġbreathed": 7793,
      "Ġslipping": 7794,
      "ĠFlicker": 7795,
      "Ġinstinct": 7796,
      "Ġencouragement": 7797,
      "ĠDavey": 7798,
      "Ġbothered": 7799,
      "ĠGraceful": 7800,
      "Ġmeows": 7801,
      "Ġsincere": 7802,
      "ĠAnother": 7803,
      "Ġunfold": 7804,
      "Frank": 7805,
      "Ġflavor": 7806,
      "Ġmaster": 7807,
      "onnor": 7808,
      "Ġmailed": 7809,
      "ĠScale": 7810,
      "Ġfluttered": 7811,
      "Roar": 7812,
      "Ġgreeted": 7813,
      "ĠPrince": 7814,
      "Ġcooperate": 7815,
      "ĠTrevor": 7816,
      "Ġsponge": 7817,
      "ĠFlyer": 7818,
      "Ġpeeped": 7819,
      "Ġmaterials": 7820,
      "Ġnoodles": 7821,
      "immering": 7822,
      "Ġsank": 7823,
      "Ġbamboo": 7824,
      "Ġthroat": 7825,
      "Ġfootsteps": 7826,
      "--": 7827,
      "Back": 7828,
      "Bessie": 7829,
      "Boys": 7830,
      "Jessica": 7831,
      "Keep": 7832,
      "Play": 7833,
      "Ray": 7834,
      "Rock": 7835,
      "Take": 7836,
      "Tree": 7837,
      "eat": 7838,
      "eet": 7839,
      "fall": 7840,
      "ior": 7841,
      "mates": 7842,
      "match": 7843,
      "over": 7844,
      "rope": 7845,
      "upt": 7846,
      "wise": 7847,
      "Ġill": 7848,
      "Ġic": 7849,
      "Ġouch": 7850,
      "Ġty": 7851,
      "Ġtum": 7852,
      "Ġtiss": 7853,
      "edic": 7854,
      "Ġborn": 7855,
      "Ġhyd": 7856,
      "ĠTena": 7857,
      "Ġwaded": 7858,
      "Ġding": 7859,
      "Ġcongratul": 7860,
      "Ġmoo": 7861,
      "Ġmiles": 7862,
      "isies": 7863,
      "Ġsav": 7864,
      "Ġgri": 7865,
      "ata": 7866,
      "ĠSleep": 7867,
      "amel": 7868,
      "ĠHold": 7869,
      "ĠHippy": 7870,
      "Ġrowed": 7871,
      "ĠTime": 7872,
      "ĠLia": 7873,
      "ĠLoop": 7874,
      "ĠBri": 7875,
      "Ġforce": 7876,
      "Ġneare": 7877,
      "Ġkilled": 7878,
      "elie": 7879,
      "ĠApples": 7880,
      "ĠAaron": 7881,
      "raw": 7882,
      "icip": 7883,
      "Ġropes": 7884,
      "ains": 7885,
      "umby": 7886,
      "Ġscen": 7887,
      "ĠWool": 7888,
      "ĠWaffle": 7889,
      "Ġnewfound": 7890,
      "Ġbride": 7891,
      "Ġworries": 7892,
      "Ġexamp": 7893,
      "Ġexcept": 7894,
      "Ġflipped": 7895,
      "Ġprove": 7896,
      "aser": 7897,
      "Ġchar": 7898,
      "Ġwhoever": 7899,
      "ĠMomma": 7900,
      "ĠBobbi": 7901,
      "anta": 7902,
      "Ġskunk": 7903,
      "andra": 7904,
      "Ġtweet": 7905,
      "Ġtearing": 7906,
      "Ġenem": 7907,
      "ĠThrough": 7908,
      "Ġforesh": 7909,
      "Ġoverw": 7910,
      "bba": 7911,
      "ĠKn": 7912,
      "ĠKay": 7913,
      "Ġmagician": 7914,
      "Ġcoloring": 7915,
      "ipes": 7916,
      "Ġsquinted": 7917,
      "Ġstrongest": 7918,
      "ĠPl": 7919,
      "ĠPeek": 7920,
      "sol": 7921,
      "Ġdev": 7922,
      "azel": 7923,
      "ĠRad": 7924,
      "Ġwarmer": 7925,
      "Ġwarmly": 7926,
      "Ġsooner": 7927,
      "ĠGerry": 7928,
      "ĠGina": 7929,
      "airy": 7930,
      "Ġhopster": 7931,
      "acob": 7932,
      "Ġdisob": 7933,
      "Ġgrassy": 7934,
      "Ġdresser": 7935,
      "boat": 7936,
      "Ġdrawn": 7937,
      "Ġanticip": 7938,
      "ĠOink": 7939,
      "ĠOliver": 7940,
      "Ġcreamy": 7941,
      "Ġtightrope": 7942,
      "Doctor": 7943,
      "Ġquieter": 7944,
      "Ġsigned": 7945,
      "Finny": 7946,
      "ipper": 7947,
      "Ġsailboat": 7948,
      "Ġbelieving": 7949,
      "Ġcafe": 7950,
      "iversity": 7951,
      "Ġcorners": 7952,
      "Ġspoiling": 7953,
      "Ġrecorder": 7954,
      "Goodnight": 7955,
      "Ġdespite": 7956,
      "Ġpops": 7957,
      "balls": 7958,
      "Ġbanged": 7959,
      "Ġbeaks": 7960,
      "Ġcrossing": 7961,
      "ĠNick": 7962,
      "Ġbaa": 7963,
      "ĠStan": 7964,
      "ĠSpicy": 7965,
      "Ġraccoon": 7966,
      "Ġminded": 7967,
      "Ġvanilla": 7968,
      "Ġsqueaked": 7969,
      "Ġnervously": 7970,
      "Ġpicnics": 7971,
      "Ġnumbered": 7972,
      "Ġwhispers": 7973,
      "Ġgiggles": 7974,
      "Ġprayers": 7975,
      "ĠPeggy": 7976,
      "Ġerase": 7977,
      "Ġfrowns": 7978,
      "Ġfrowning": 7979,
      "attered": 7980,
      "Ġstamped": 7981,
      "Ġdesigns": 7982,
      "Ġaeroplanes": 7983,
      "Ġknots": 7984,
      "Ġedges": 7985,
      "Ġspells": 7986,
      "Ġotters": 7987,
      "Ġcops": 7988,
      "Ġscrewdriver": 7989,
      "Ġribbit": 7990,
      "Ġmagnif": 7991,
      "ĠTweety": 7992,
      "Ġgroaned": 7993,
      "Ġtips": 7994,
      "Ġstomp": 7995,
      "Ġpilots": 7996,
      "Ġteaspoons": 7997,
      "Ġcuddles": 7998,
      "Ġhunters": 7999,
      "ĠYellow": 8000,
      "Ġcomforting": 8001,
      "Ġsandcastles": 8002,
      "ĠFlash": 8003,
      "ĠUniversity": 8004,
      "Leave": 8005,
      "Ġhonking": 8006,
      "Ġpastels": 8007,
      "Ġpurrs": 8008,
      "Ġtongues": 8009,
      "Ġgazing": 8010,
      "Ġsirens": 8011,
      "Ġtrembled": 8012,
      "Ġsurroundings": 8013,
      "Ġsprinkled": 8014,
      "Ġtravelled": 8015,
      "ĠJanie": 8016,
      "Ġlicking": 8017,
      "ĠWhistler": 8018,
      "ĠAuntie": 8019,
      "Ġswimsuit": 8020,
      "ĠMegan": 8021,
      "Someone": 8022,
      "clock": 8023,
      "Ġchatting": 8024,
      "Ġscoops": 8025,
      "Ġrefreshing": 8026,
      "Ġtossed": 8027,
      "ydia": 8028,
      "ĠMicroscope": 8029,
      "Ġcommon": 8030,
      "Ġsquawk": 8031,
      "ĠReady": 8032,
      "Ġmesses": 8033,
      "Ġbehavior": 8034,
      "ĠFeel": 8035,
      "Ġcautiously": 8036,
      "Ġdaisies": 8037,
      "Ġcowboy": 8038,
      "Ġcertain": 8039,
      "Abigail": 8040,
      "Ġscraped": 8041,
      "Ġastronauts": 8042,
      "Ġevil": 8043,
      "ĠFlexible": 8044,
      "ĠFoldy": 8045,
      "Ġtummies": 8046,
      "Ġtissue": 8047,
      "Ġhydrant": 8048,
      "Ġexample": 8049,
      "Ġenemies": 8050,
      "Ġforeshadow": 8051,
      "Ġanticipation": 8052,
      "Abby": 8053,
      "Ava": 8054,
      "Arrr": 8055,
      "Both": 8056,
      "David": 8057,
      "Deal": 8058,
      "Each": 8059,
      "Fire": 8060,
      "Gr": 8061,
      "Honey": 8062,
      "Jan": 8063,
      "Karen": 8064,
      "Lou": 8065,
      "Magic": 8066,
      "Near": 8067,
      "Nina": 8068,
      "Pandy": 8069,
      "Zoomy": 8070,
      "ae": 8071,
      "actus": 8072,
      "cc": 8073,
      "form": 8074,
      "lied": 8075,
      "nis": 8076,
      "oor": 8077,
      "rig": 8078,
      "tto": 8079,
      "thest": 8080,
      "wen": 8081,
      "yril": 8082,
      "Ġtumbled": 8083,
      "helle": 8084,
      "Ġbitten": 8085,
      "Ġbison": 8086,
      "Ġbacked": 8087,
      "initely": 8088,
      "Ġwaking": 8089,
      "Ġlent": 8090,
      "Ġlull": 8091,
      "Ġdie": 8092,
      "Ġdarl": 8093,
      "Ġcoug": 8094,
      "Ġpound": 8095,
      "isions": 8096,
      "lls": 8097,
      "lling": 8098,
      "ĠSanta": 8099,
      "ĠHanger": 8100,
      "Ġplug": 8101,
      "Ġinsp": 8102,
      "rier": 8103,
      "Ġocc": 8104,
      "oosh": 8105,
      "Ġrout": 8106,
      "Ġstem": 8107,
      "unior": 8108,
      "ĠLarry": 8109,
      "ĠListen": 8110,
      "ĠLazy": 8111,
      "ĠLaser": 8112,
      "ĠLydia": 8113,
      "ĠBulb": 8114,
      "ĠBonnie": 8115,
      "ĠMan": 8116,
      "ĠMother": 8117,
      "ĠMarian": 8118,
      "Ġshave": 8119,
      "ĠTomas": 8120,
      "Ġwhimp": 8121,
      "ĠAudrey": 8122,
      "Ġaside": 8123,
      "Ġjunior": 8124,
      "Ġseals": 8125,
      "Ġclicked": 8126,
      "Ġspins": 8127,
      "Ġmemb": 8128,
      "Ġbecomes": 8129,
      "Ġfailed": 8130,
      "ĠWait": 8131,
      "Ġbrakes": 8132,
      "ĠJes": 8133,
      "ddie": 8134,
      "ĠFire": 8135,
      "ĠFork": 8136,
      "ĠFishy": 8137,
      "Ġflips": 8138,
      "Ġblamed": 8139,
      "epeat": 8140,
      "Ġaband": 8141,
      "othy": 8142,
      "Ġdecl": 8143,
      "Ġdecisions": 8144,
      "Ġhoses": 8145,
      "ĠSofia": 8146,
      "ĠEric": 8147,
      "Ġlongest": 8148,
      "Ġmoons": 8149,
      "Ġgrabbing": 8150,
      "Ġrocky": 8151,
      "ĠCoby": 8152,
      "gestion": 8153,
      "asty": 8154,
      "Ġcleared": 8155,
      "pecting": 8156,
      "Ġsnuck": 8157,
      "Ġdoorway": 8158,
      "Ġcheat": 8159,
      "Ġfarthest": 8160,
      "ĠKatie": 8161,
      "ĠPuppy": 8162,
      "maid": 8163,
      "Ġjoins": 8164,
      "Ġthrown": 8165,
      "Ġenjoyable": 8166,
      "Ġconqu": 8167,
      "acy": 8168,
      "Ġowns": 8169,
      "Ġmovements": 8170,
      "Ġbelts": 8171,
      "boards": 8172,
      "Ġtasting": 8173,
      "Ġsteer": 8174,
      "Ġstepping": 8175,
      "Ġsteering": 8176,
      "Ġwinners": 8177,
      "Ġjoining": 8178,
      "Ġcountries": 8179,
      "Ġfills": 8180,
      "Ġplanting": 8181,
      "ounced": 8182,
      "Ġresisted": 8183,
      "ĠZee": 8184,
      "ĠZoey": 8185,
      "Ġsprang": 8186,
      "Ġbuckles": 8187,
      "Ġbuckled": 8188,
      "Ġfits": 8189,
      "ĠBubba": 8190,
      "Ġbandages": 8191
    },
    "merges": [
      [
        "Ġ",
        "t"
      ],
      [
        "h",
        "e"
      ],
      [
        "Ġ",
        "a"
      ],
      [
        "Ġ",
        "s"
      ],
      [
        "Ġ",
        "w"
      ],
      [
        "Ġt",
        "he"
      ],
      [
        "n",
        "d"
      ],
      [
        "e",
        "d"
      ],
      [
        "Ġ",
        "b"
      ],
      [
        "Ġt",
        "o"
      ],
      [
        "Ġa",
        "nd"
      ],
      [
        "Ġ",
        "h"
      ],
      [
        "Ġ",
        "f"
      ],
      [
        "i",
        "n"
      ],
      [
        "Ġ",
        "T"
      ],
      [
        "Ġw",
        "a"
      ],
      [
        "r",
        "e"
      ],
      [
        "i",
        "t"
      ],
      [
        "o",
        "u"
      ],
      [
        "Ġ",
        "l"
      ],
      [
        "Ġ",
        "d"
      ],
      [
        "Ġ",
        "c"
      ],
      [
        "Ġ",
        "p"
      ],
      [
        "a",
        "y"
      ],
      [
        "Ġ",
        "m"
      ],
      [
        "e",
        "r"
      ],
      [
        "Ġwa",
        "s"
      ],
      [
        "o",
        "m"
      ],
      [
        "ĠT",
        "he"
      ],
      [
        "Ġ",
        "he"
      ],
      [
        "i",
        "s"
      ],
      [
        "a",
        "r"
      ],
      [
        "Ġ",
        "n"
      ],
      [
        "i",
        "m"
      ],
      [
        "o",
        "n"
      ],
      [
        "Ġs",
        "a"
      ],
      [
        "l",
        "l"
      ],
      [
        "i",
        "d"
      ],
      [
        "Ġh",
        "a"
      ],
      [
        "Ġ",
        "g"
      ],
      [
        "a",
        "t"
      ],
      [
        "in",
        "g"
      ],
      [
        "Ġ",
        "S"
      ],
      [
        "o",
        "t"
      ],
      [
        "e",
        "n"
      ],
      [
        "a",
        "n"
      ],
      [
        "l",
        "e"
      ],
      [
        "o",
        "r"
      ],
      [
        "i",
        "r"
      ],
      [
        "e",
        "t"
      ],
      [
        "a",
        "m"
      ],
      [
        "Ġ",
        "H"
      ],
      [
        "Ġt",
        "h"
      ],
      [
        "Ġ",
        "it"
      ],
      [
        "ĠThe",
        "y"
      ],
      [
        "i",
        "g"
      ],
      [
        "i",
        "l"
      ],
      [
        "Ġp",
        "l"
      ],
      [
        "Ġ",
        "in"
      ],
      [
        "ĠH",
        "e"
      ],
      [
        "Ġ",
        "\""
      ],
      [
        "o",
        "w"
      ],
      [
        "v",
        "er"
      ],
      [
        "r",
        "i"
      ],
      [
        "u",
        "t"
      ],
      [
        "Ġ",
        "u"
      ],
      [
        "Ġb",
        "e"
      ],
      [
        "Ġpl",
        "ay"
      ],
      [
        "Ġsa",
        "id"
      ],
      [
        "it",
        "h"
      ],
      [
        "Ġw",
        "ith"
      ],
      [
        "Ġd",
        "ay"
      ],
      [
        "Ġ",
        "y"
      ],
      [
        "Ġ",
        "o"
      ],
      [
        "O",
        "n"
      ],
      [
        "p",
        "p"
      ],
      [
        "o",
        "o"
      ],
      [
        "Ġ",
        "r"
      ],
      [
        "k",
        "ed"
      ],
      [
        "Ġhe",
        "r"
      ],
      [
        "c",
        "e"
      ],
      [
        "Ġ",
        "I"
      ],
      [
        "l",
        "d"
      ],
      [
        "ĠS",
        "he"
      ],
      [
        "ĠT",
        "im"
      ],
      [
        "Ġh",
        "is"
      ],
      [
        "Ġs",
        "t"
      ],
      [
        "k",
        "e"
      ],
      [
        "Ġ",
        "e"
      ],
      [
        "c",
        "k"
      ],
      [
        "n",
        "t"
      ],
      [
        "Ġy",
        "ou"
      ],
      [
        "s",
        "t"
      ],
      [
        "ver",
        "y"
      ],
      [
        "Ġb",
        "ig"
      ],
      [
        "v",
        "e"
      ],
      [
        "e",
        "nd"
      ],
      [
        "u",
        "n"
      ],
      [
        "Ġha",
        "pp"
      ],
      [
        "Ġ",
        "on"
      ],
      [
        "a",
        "ll"
      ],
      [
        "ri",
        "end"
      ],
      [
        "Ġf",
        "riend"
      ],
      [
        "il",
        "y"
      ],
      [
        "Ġthe",
        "y"
      ],
      [
        "Ġ",
        "L"
      ],
      [
        "Ġha",
        "d"
      ],
      [
        "Ġw",
        "e"
      ],
      [
        "Ġu",
        "p"
      ],
      [
        "Ġwa",
        "nt"
      ],
      [
        "Ġn",
        "ot"
      ],
      [
        "Ġl",
        "i"
      ],
      [
        "he",
        "r"
      ],
      [
        "Ġo",
        "f"
      ],
      [
        "a",
        "d"
      ],
      [
        "Ġd",
        "o"
      ],
      [
        "it",
        "t"
      ],
      [
        "s",
        "e"
      ],
      [
        "Ġ",
        "B"
      ],
      [
        "Ġ",
        "M"
      ],
      [
        "Ġhapp",
        "y"
      ],
      [
        "en",
        "t"
      ],
      [
        "Ġ",
        "very"
      ],
      [
        "e",
        "s"
      ],
      [
        "Ġth",
        "at"
      ],
      [
        "'",
        "s"
      ],
      [
        "On",
        "e"
      ],
      [
        "ou",
        "ld"
      ],
      [
        "Ġsa",
        "w"
      ],
      [
        "Ġf",
        "or"
      ],
      [
        "Ġm",
        "om"
      ],
      [
        "Ġs",
        "h"
      ],
      [
        "Ġs",
        "o"
      ],
      [
        "itt",
        "le"
      ],
      [
        "Ġl",
        "ittle"
      ],
      [
        "Ġs",
        "he"
      ],
      [
        "c",
        "h"
      ],
      [
        "im",
        "e"
      ],
      [
        ".",
        "\""
      ],
      [
        "Ġt",
        "ime"
      ],
      [
        "Ġn",
        "e"
      ],
      [
        "Ġn",
        "am"
      ],
      [
        "Ġ",
        "k"
      ],
      [
        "ou",
        "nd"
      ],
      [
        "Ġthe",
        "re"
      ],
      [
        "Ġnam",
        "ed"
      ],
      [
        "ĠL",
        "ily"
      ],
      [
        "Ġs",
        "m"
      ],
      [
        "Ġwe",
        "re"
      ],
      [
        "Ġb",
        "o"
      ],
      [
        "Ġwant",
        "ed"
      ],
      [
        "Ġb",
        "ut"
      ],
      [
        "T",
        "he"
      ],
      [
        "Ġfriend",
        "s"
      ],
      [
        "!",
        "\""
      ],
      [
        "v",
        "ed"
      ],
      [
        "ou",
        "t"
      ],
      [
        "h",
        "t"
      ],
      [
        "ĠT",
        "om"
      ],
      [
        "ir",
        "d"
      ],
      [
        "e",
        "l"
      ],
      [
        "Ġb",
        "ird"
      ],
      [
        "a",
        "l"
      ],
      [
        "a",
        "ke"
      ],
      [
        "Ġa",
        "n"
      ],
      [
        "om",
        "e"
      ],
      [
        "ĠI",
        "t"
      ],
      [
        "Ġto",
        "o"
      ],
      [
        "Ġw",
        "ent"
      ],
      [
        "id",
        "e"
      ],
      [
        "u",
        "g"
      ],
      [
        "Ġw",
        "h"
      ],
      [
        "On",
        "ce"
      ],
      [
        "Ġ",
        "is"
      ],
      [
        "Ġhe",
        "l"
      ],
      [
        "u",
        "e"
      ],
      [
        "Ġa",
        "ll"
      ],
      [
        "Ġhel",
        "p"
      ],
      [
        "Ġl",
        "oo"
      ],
      [
        "Ġl",
        "o"
      ],
      [
        "r",
        "y"
      ],
      [
        "Ġ",
        "A"
      ],
      [
        "Ġup",
        "on"
      ],
      [
        "t",
        "er"
      ],
      [
        "o",
        "re"
      ],
      [
        "i",
        "nd"
      ],
      [
        "Ġf",
        "un"
      ],
      [
        "i",
        "ll"
      ],
      [
        "g",
        "et"
      ],
      [
        "am",
        "e"
      ],
      [
        "Ġto",
        "y"
      ],
      [
        "Ġa",
        "s"
      ],
      [
        "Ġ",
        "j"
      ],
      [
        "Ġa",
        "t"
      ],
      [
        "r",
        "a"
      ],
      [
        "Ġ",
        "re"
      ],
      [
        "Ġd",
        "id"
      ],
      [
        "get",
        "her"
      ],
      [
        "u",
        "r"
      ],
      [
        "a",
        "ck"
      ],
      [
        "Ġs",
        "e"
      ],
      [
        "Ġto",
        "gether"
      ],
      [
        "Ġt",
        "re"
      ],
      [
        "Ġc",
        "at"
      ],
      [
        "l",
        "y"
      ],
      [
        "oo",
        "d"
      ],
      [
        "i",
        "c"
      ],
      [
        "Ġc",
        "ould"
      ],
      [
        "t",
        "ed"
      ],
      [
        "Ġdo",
        "g"
      ],
      [
        "Ġc",
        "an"
      ],
      [
        "ar",
        "k"
      ],
      [
        "Ġb",
        "all"
      ],
      [
        "Ġthe",
        "ir"
      ],
      [
        "ar",
        "d"
      ],
      [
        "e",
        "c"
      ],
      [
        "Ġplay",
        "ed"
      ],
      [
        "w",
        "ay"
      ],
      [
        "Ġh",
        "im"
      ],
      [
        "?",
        "\""
      ],
      [
        "ir",
        "l"
      ],
      [
        "m",
        "y"
      ],
      [
        "Ġg",
        "o"
      ],
      [
        "Ġg",
        "irl"
      ],
      [
        "Ġr",
        "o"
      ],
      [
        "Ġa",
        "re"
      ],
      [
        "he",
        "d"
      ],
      [
        "'",
        "t"
      ],
      [
        "a",
        "x"
      ],
      [
        "a",
        "in"
      ],
      [
        "Ġthe",
        "m"
      ],
      [
        "Ġl",
        "e"
      ],
      [
        "Ġ",
        "out"
      ],
      [
        "Ġk",
        "n"
      ],
      [
        "Ġf",
        "r"
      ],
      [
        "he",
        "n"
      ],
      [
        "u",
        "m"
      ],
      [
        "Ġsa",
        "d"
      ],
      [
        "Ġtre",
        "e"
      ],
      [
        "Ġbo",
        "y"
      ],
      [
        "u",
        "l"
      ],
      [
        "Ġc",
        "l"
      ],
      [
        "Ġha",
        "ve"
      ],
      [
        "ot",
        "her"
      ],
      [
        "ou",
        "g"
      ],
      [
        "Ġm",
        "an"
      ],
      [
        "Ġlo",
        "ved"
      ],
      [
        "Ġloo",
        "ked"
      ],
      [
        "Ġs",
        "p"
      ],
      [
        "Ġst",
        "ar"
      ],
      [
        "Ġf",
        "ound"
      ],
      [
        "h",
        "ing"
      ],
      [
        "ĠM",
        "ax"
      ],
      [
        "on",
        "e"
      ],
      [
        "ĠS",
        "ue"
      ],
      [
        "Ġb",
        "ack"
      ],
      [
        "Ġs",
        "c"
      ],
      [
        "ow",
        "n"
      ],
      [
        "Ġli",
        "ke"
      ],
      [
        "a",
        "re"
      ],
      [
        "Ġm",
        "e"
      ],
      [
        "Ġc",
        "ar"
      ],
      [
        "f",
        "ul"
      ],
      [
        "Ġbe",
        "c"
      ],
      [
        "Ġp",
        "ark"
      ],
      [
        "s",
        "ide"
      ],
      [
        "on",
        "g"
      ],
      [
        "el",
        "t"
      ],
      [
        "ig",
        "ht"
      ],
      [
        "Ġ",
        "One"
      ],
      [
        "Ġf",
        "a"
      ],
      [
        "Ġli",
        "ked"
      ],
      [
        "Ġw",
        "ould"
      ],
      [
        "Ġf",
        "elt"
      ],
      [
        "Ġm",
        "ake"
      ],
      [
        "o",
        "p"
      ],
      [
        "om",
        "et"
      ],
      [
        "Ġse",
        "e"
      ],
      [
        "Ġl",
        "a"
      ],
      [
        "r",
        "ound"
      ],
      [
        "Y",
        "ou"
      ],
      [
        "Ġ",
        "W"
      ],
      [
        "e",
        "ll"
      ],
      [
        "ĠB",
        "ut"
      ],
      [
        "Ġn",
        "o"
      ],
      [
        "ou",
        "se"
      ],
      [
        "Ġstar",
        "ted"
      ],
      [
        "ar",
        "ed"
      ],
      [
        "Ġas",
        "ked"
      ],
      [
        "Ġne",
        "w"
      ],
      [
        "Ġa",
        "l"
      ],
      [
        "i",
        "ce"
      ],
      [
        "ĠB",
        "en"
      ],
      [
        "Ġc",
        "ame"
      ],
      [
        "oug",
        "ht"
      ],
      [
        "a",
        "g"
      ],
      [
        "Ġs",
        "omet"
      ],
      [
        "il",
        "ed"
      ],
      [
        "Ġ",
        "other"
      ],
      [
        "Ġa",
        "g"
      ],
      [
        "ĠS",
        "am"
      ],
      [
        "Ġs",
        "ay"
      ],
      [
        "Ġg",
        "ood"
      ],
      [
        "Ġb",
        "r"
      ],
      [
        "s",
        "s"
      ],
      [
        "Ġsm",
        "all"
      ],
      [
        "ad",
        "e"
      ],
      [
        "ing",
        "s"
      ],
      [
        "Ġsm",
        "iled"
      ],
      [
        "ri",
        "ed"
      ],
      [
        "o",
        "b"
      ],
      [
        "i",
        "a"
      ],
      [
        "p",
        "ot"
      ],
      [
        "Ġa",
        "way"
      ],
      [
        "Ġw",
        "or"
      ],
      [
        "Ġsomet",
        "hing"
      ],
      [
        "Ġe",
        "x"
      ],
      [
        "Ġf",
        "ind"
      ],
      [
        "Ġth",
        "ought"
      ],
      [
        "en",
        "ed"
      ],
      [
        "Ġwh",
        "at"
      ],
      [
        "Ġm",
        "ade"
      ],
      [
        "Ġh",
        "ome"
      ],
      [
        "oo",
        "k"
      ],
      [
        "t",
        "y"
      ],
      [
        "Ġm",
        "u"
      ],
      [
        "Ġp",
        "ut"
      ],
      [
        "Ġfr",
        "om"
      ],
      [
        "Ġplay",
        "ing"
      ],
      [
        "Ġe",
        "very"
      ],
      [
        "Ġwa",
        "l"
      ],
      [
        "Ġc",
        "o"
      ],
      [
        "Ġr",
        "an"
      ],
      [
        "ar",
        "n"
      ],
      [
        "a",
        "ch"
      ],
      [
        "Ġ",
        "J"
      ],
      [
        "i",
        "e"
      ],
      [
        "d",
        "d"
      ],
      [
        "Ġ",
        "F"
      ],
      [
        "i",
        "le"
      ],
      [
        "ĠS",
        "pot"
      ],
      [
        "Ġd",
        "own"
      ],
      [
        "Ġs",
        "ome"
      ],
      [
        "a",
        "ve"
      ],
      [
        "Ġf",
        "l"
      ],
      [
        "Ġag",
        "ain"
      ],
      [
        "u",
        "c"
      ],
      [
        "n",
        "y"
      ],
      [
        "k",
        "ing"
      ],
      [
        "Ġh",
        "ouse"
      ],
      [
        "Ġsc",
        "ared"
      ],
      [
        "Ġla",
        "ug"
      ],
      [
        "Ġb",
        "l"
      ],
      [
        "u",
        "re"
      ],
      [
        "a",
        "b"
      ],
      [
        "u",
        "ck"
      ],
      [
        "e",
        "p"
      ],
      [
        "i",
        "ck"
      ],
      [
        "Ġle",
        "arn"
      ],
      [
        "Ġ",
        "You"
      ],
      [
        "Ġm",
        "y"
      ],
      [
        "Ġp",
        "r"
      ],
      [
        "Ġtoo",
        "k"
      ],
      [
        "Ġw",
        "ill"
      ],
      [
        "i",
        "f"
      ],
      [
        "re",
        "t"
      ],
      [
        "Ġth",
        "ings"
      ],
      [
        "Ġbo",
        "x"
      ],
      [
        "Ġa",
        "round"
      ],
      [
        "Ġtoy",
        "s"
      ],
      [
        "ou",
        "d"
      ],
      [
        ",",
        "\""
      ],
      [
        "Ġs",
        "un"
      ],
      [
        "Ġs",
        "w"
      ],
      [
        "Ġyou",
        "r"
      ],
      [
        "a",
        "s"
      ],
      [
        "Ġf",
        "e"
      ],
      [
        "Ġthe",
        "n"
      ],
      [
        "Ġli",
        "ved"
      ],
      [
        "ĠM",
        "ia"
      ],
      [
        "Ġw",
        "hen"
      ],
      [
        "is",
        "h"
      ],
      [
        "u",
        "s"
      ],
      [
        "pp",
        "ed"
      ],
      [
        "Ġc",
        "h"
      ],
      [
        "an",
        "k"
      ],
      [
        "Ġsay",
        "s"
      ],
      [
        "Ġa",
        "b"
      ],
      [
        "ot",
        "h"
      ],
      [
        "T",
        "im"
      ],
      [
        "Ġl",
        "ot"
      ],
      [
        "T",
        "h"
      ],
      [
        "Ġg",
        "et"
      ],
      [
        "Ġg",
        "ot"
      ],
      [
        "Ġwh",
        "o"
      ],
      [
        "a",
        "p"
      ],
      [
        "Ġt",
        "ried"
      ],
      [
        "u",
        "st"
      ],
      [
        "is",
        "t"
      ],
      [
        "Ġkn",
        "ow"
      ],
      [
        "e",
        "w"
      ],
      [
        "um",
        "p"
      ],
      [
        "it",
        "ed"
      ],
      [
        "uc",
        "y"
      ],
      [
        "Ġman",
        "y"
      ],
      [
        "L",
        "ily"
      ],
      [
        "Ġin",
        "t"
      ],
      [
        "nd",
        "er"
      ],
      [
        "i",
        "ve"
      ],
      [
        "is",
        "e"
      ],
      [
        "Ġd",
        "ec"
      ],
      [
        "Ġr",
        "ed"
      ],
      [
        "Ġab",
        "out"
      ],
      [
        "Ġp",
        "ret"
      ],
      [
        "Ġ",
        "D"
      ],
      [
        "all",
        "y"
      ],
      [
        "Ġm",
        "ore"
      ],
      [
        "Ġan",
        "y"
      ],
      [
        "q",
        "u"
      ],
      [
        "Ġkn",
        "ew"
      ],
      [
        "a",
        "ce"
      ],
      [
        "Ġ",
        "v"
      ],
      [
        "â",
        "Ģ"
      ],
      [
        "Ġc",
        "are"
      ],
      [
        "Ġp",
        "o"
      ],
      [
        "Ġh",
        "ug"
      ],
      [
        "Ġlearn",
        "ed"
      ],
      [
        "Ġp",
        "ic"
      ],
      [
        "Ġbe",
        "st"
      ],
      [
        "Ġo",
        "p"
      ],
      [
        "ou",
        "s"
      ],
      [
        "Ġbec",
        "ame"
      ],
      [
        "u",
        "se"
      ],
      [
        "ur",
        "p"
      ],
      [
        "f",
        "ter"
      ],
      [
        "Ġwa",
        "ter"
      ],
      [
        "way",
        "s"
      ],
      [
        "Ġh",
        "o"
      ],
      [
        "Ġu",
        "n"
      ],
      [
        "Ġex",
        "c"
      ],
      [
        "Ġg",
        "re"
      ],
      [
        "Ġal",
        "ways"
      ],
      [
        "a",
        "use"
      ],
      [
        "Ġloo",
        "k"
      ],
      [
        "id",
        "ed"
      ],
      [
        "Ġlaug",
        "hed"
      ],
      [
        "Ġout",
        "side"
      ],
      [
        "er",
        "s"
      ],
      [
        "Ġe",
        "at"
      ],
      [
        "Ġdec",
        "ided"
      ],
      [
        "ĠS",
        "o"
      ],
      [
        "Ġro",
        "om"
      ],
      [
        "ĠM",
        "om"
      ],
      [
        "u",
        "dd"
      ],
      [
        "ĠL",
        "ucy"
      ],
      [
        "Ġint",
        "o"
      ],
      [
        "Ġb",
        "oth"
      ],
      [
        "Ġsh",
        "ow"
      ],
      [
        "Ġbec",
        "ause"
      ],
      [
        "ĠB",
        "ob"
      ],
      [
        "Ġp",
        "e"
      ],
      [
        "The",
        "y"
      ],
      [
        "n",
        "n"
      ],
      [
        "an",
        "t"
      ],
      [
        "Ġd",
        "ad"
      ],
      [
        "Ġth",
        "is"
      ],
      [
        "ĠA",
        "nd"
      ],
      [
        "Ġ",
        "E"
      ],
      [
        "Ġj",
        "ump"
      ],
      [
        "Ġn",
        "ice"
      ],
      [
        "Ġr",
        "un"
      ],
      [
        "Ġ",
        "ke"
      ],
      [
        "it",
        "e"
      ],
      [
        "Ġfa",
        "st"
      ],
      [
        "f",
        "e"
      ],
      [
        "Ġon",
        "e"
      ],
      [
        "Ġexc",
        "ited"
      ],
      [
        "Ġl",
        "ong"
      ],
      [
        "Y",
        "es"
      ],
      [
        "Ġfe",
        "el"
      ],
      [
        "urp",
        "r"
      ],
      [
        "T",
        "om"
      ],
      [
        "Ġa",
        "m"
      ],
      [
        "u",
        "ll"
      ],
      [
        "Ġs",
        "l"
      ],
      [
        "Ġs",
        "urpr"
      ],
      [
        "ou",
        "r"
      ],
      [
        "Ġt",
        "r"
      ],
      [
        "Ġs",
        "or"
      ],
      [
        "Ġto",
        "ld"
      ],
      [
        "Ġt",
        "ake"
      ],
      [
        "in",
        "k"
      ],
      [
        "nn",
        "a"
      ],
      [
        "in",
        "y"
      ],
      [
        "Ġin",
        "side"
      ],
      [
        "W",
        "h"
      ],
      [
        "Ġs",
        "k"
      ],
      [
        "o",
        "g"
      ],
      [
        "Ġpret",
        "ty"
      ],
      [
        "Ġm",
        "o"
      ],
      [
        "Ġg",
        "ra"
      ],
      [
        "Ġro",
        "ck"
      ],
      [
        "Ġe",
        "ach"
      ],
      [
        "im",
        "al"
      ],
      [
        "Ġg",
        "ave"
      ],
      [
        "Ġan",
        "imal"
      ],
      [
        "Ġmu",
        "ch"
      ],
      [
        "Ġne",
        "ed"
      ],
      [
        "le",
        "w"
      ],
      [
        "Ġth",
        "an"
      ],
      [
        "Ġto",
        "w"
      ],
      [
        "B",
        "ut"
      ],
      [
        "g",
        "ed"
      ],
      [
        "Ġsor",
        "ry"
      ],
      [
        "r",
        "o"
      ],
      [
        "Ġh",
        "ow"
      ],
      [
        "Ġst",
        "r"
      ],
      [
        "et",
        "ter"
      ],
      [
        "Ġ",
        "C"
      ],
      [
        "v",
        "en"
      ],
      [
        "Ġ",
        "or"
      ],
      [
        "Ġu",
        "nder"
      ],
      [
        "ar",
        "a"
      ],
      [
        "Ġo",
        "ld"
      ],
      [
        "g",
        "e"
      ],
      [
        "es",
        "s"
      ],
      [
        "Ġcl",
        "o"
      ],
      [
        "is",
        "ed"
      ],
      [
        "Ġbe",
[...]
